#version: 0.2
  t
h e
  a
i n
 t he
e r
o n
  ,
r e
  s 
e d
  o
  w
n d
  .
a t
o r
i t
  c
i s
e n
e s
  f
 o f
a n
a r
  b
  in
a l
in g
  p
 a nd
a s
 t o
i c
r o
  m
  d
  h
i on
l e
o u
  re
  T
i l
  "
en t
 t h
  S
  A
  1
e l
  C
s t
  l
o m
  =
  e
  n
a c
a d
a m
o l
 w as
e c
  on
u r
  B
  g
l y
  M
  -
i d
 f or
i m
  '
  I
i v
i r
i g
e t
 a s
it h
 T he
o w
  2
o t
  H
 s t
at ion
he r
a y
u t
 w ith
u s
er s
 th at
 b e
  P
  R
  is
e m
u l
t er
c e
  F
u n
c h
 w h
v er
a nd
  W
 a l
  G
  N
t h
r a
  )
  (
 b y
c t
 c on
o s
es t
  L
  D
 a n
a g
  J
is t
u m
 1 9
0 0
ro m
  it
  he
a v
o d
r i
a in
 p ro
  E
 a t
or t
 f rom
il l
 c om
 h is
i es
  v
 s e
er e
 s u
re s
p p
i f
 d e
  O
o c
o p
e w
 w ere
o re
ig h
l d
al l
an t
ic h
a k
it y
ar d
at e
on g
 o r
g h
ar t
 s h
a b
 e x
  r
 c h
 p l
q u
b er
p t
at ed
  @
es s
u d
ro u
e ar
as t
 h ad
  U
o v
 a re
or d
  K
iv e
i p
ec t
 wh ich
 s p
am e
re d
s e
 I n
ac k
i an
is h
i al
m ent
el l
 S t
  u
igh t
  le
ou r
g e
in e
  ;
r it
ar y
 a r
o st
i a
r u
  k
 n ot
ic al
  y
 2 00
n t
  her
 C h
t her
u e
av e
a p
  3
  un
 2 0
o g
ou s
u re
  –
id e
f ter
r an
  V
 in c
c c
u b
u st
s o
 the ir
f f
 in t
ou t
w o
ir st
or k
ion s
e nd
ou ld
 al so
ow n
 con t
ag e
ig n
l and
or m
  :
 c l
 re s
T he
om e
 h as
i re
 a b
  4
i e
 w he
on d
p er
 b ut
p l
 a d
 p er
o k
as s
ul t
 it s
  5
 @ .
 @. @
 f irst
at er
ac t
 re c
 on e
ation s
 H e
 20 1
r y
ou gh
im e
he d
 be en
 t wo
 pl ay
 h ave
d u
  Y
l ow
  us
or y
  en
ur ing
 b ec
al ly
 wh o
 com p
en ce
 th is
it e
re e
 T h
it ion
 1 8
 of f
 s er
a tt
 m an
 d es
i z
 a fter
m er
el y
 d is
  ro
 s he
m an
i le
 @ ,
 @, @
l ud
a re
r ic
 p art
k e
 s c
ac h
 A l
  j
 a g
nd er
i b
  im
 y ear
an ce
 o ther
 a pp
p ort
ou nt
 t e
em ber
 I t
c es
o ver
 o ver
 U n
 p re
ou nd
 o ut
t e
ol d
an g
ar k
 the y
it ed
ic e
res s
o y
 u p
ad e
ct ion
w n
c ed
as on
il d
in t
 com m
rou gh
 inc lud
p h
rou nd
 a tt
e y
or s
i ed
ent s
ub l
ab le
 t ime
  8
i ous
 al l
 R e
 int o
at es
l es
ur n
o od
ac e
w ard
os e
  7
 m ore
 re m
w e
 w ould
f t
r on
  6
 e v
in d
 the m
as ed
 w ork
oc k
e ver
a il
i tt
as e
re at
 u nder
ak e
n g
ing s
 s ec
e at
 m ost
f orm
il m
er ed
i x
 con s
 re l
en s
in al
 e ar
 h im
g an
 n ew
e e
f er
ri b
ter n
ul ar
in s
  Z
 A r
on e
 on ly
ic t
on s
 a ct
v ed
us e
 b o
 se ason
 19 9
at h
 c an
 d uring
 ch ar
am p
 B rit
v el
 d ec
is s
h ip
re n
 k n
w ay
  9
ation al
 as s
ov e
ol low
u al
b um
 c o
or th
 f l
we en
or n
et ween
 whe n
a w
 f ilm
ot h
 p o
o b
 c ent
ro p
 a m
 th ree
 e nd
os s
 th rough
  00
 pro du
it ies
 n um
is ion
s s
i ew
il y
 al bum
 C om
 ab out
 S e
 b u
 th an
 m e
 M ar
 rec ord
ol og
v e
 re g
 p e
 b etween
 sh ip
 n e
 sp ec
er n
 re t
 O n
an s
h n
 a c
ic k
 ag ain
 su ch
 l ater
  qu
am es
 t r
 su b
 s ong
f ore
en er
 wh ile
 s o
or ld
 p r
  ra
I n
 00 0
 f our
 in ter
 for m
 p ubl
  0
 N ew
 su pp
a z
 re le
 S h
er t
 c ol
 f ollow
 s ome
 L e
 S he
at ing
 d o
 m ade
ic s
is hed
ou th
ot her
 sec ond
 m on
 whe re
 in d
er man
i ke
a id
 a ir
 Brit ish
 s ur
 l ar
 a cc
 be ing
r al
 de f
u g
i el
le ct
 J o
iv ed
 s y
al s
in ed
 1 0
 c a
 G erman
al e
 c all
in ce
 1 2
 b l
 B l
 num ber
 se ver
 Un ited
us ic
ar n
ow ever
 d ay
 1 7
ran s
j ect
 be fore
 re p
 the re
  ent
ire ct
in es
ul l
 19 4
 W h
if ic
a j
 year s
l l
 in v
he s
 Th is
if e
e p
c k
 b oth
 m ain
ers on
in k
a ir
is ed
 l oc
 n o
 p ol
 h igh
 p op
o le
 us ed
 t ra
 te am
 m et
 s ing
y p
 bec ame
ic an
 the n
s on
over n
 c re
ain ed
ur y
th ough
 per form
 g ame
 W he
 I nd
 w ell
ver y
 ser ies
 man y
u p
 ex p
 w ar
 l ong
 A mer
u res
 con c
el f
an k
d er
 A n
i et
 o p
res ent
t s
o ot
 w e
is m
 19 8
 re v
 t rans
ro w
 d if
 m ov
 g o
i red
 C on
re land
 kn own
an n
 s ign
 e m
f ul
 c ity
 includ ing
o ol
  —
he l
ut e
 h ist
 b ro
ow er
a use
 sever al
er m
 w rit
st e
 ad d
 I reland
 A t
 st ud
 des c
ru ct
 de p
 Jo hn
 m il
is e
 sh ow
a red
 res p
i o
 I s
i er
ak ing
 M ay
 1 1
iel d
 off ic
 o b
 p os
 re ce
ist s
op le
em b
m y
 s m
 f am
iv ers
 g od
 W ar
ac ter
 e p
an e
im es
  /
 A s
p r
 b el
 d irect
 Ch r
 again st
 be gan
 le ad
  est
 C l
it s
 s aid
o ber
rou p
 m in
a e
 m ill
 c rit
iz ed
id ent
v ent
 dis c
 c ar
 f ound
 cont in
cc ess
u ally
em ent
ial ly
 b att
 Com m
 the se
at ive
 c ould
vel op
 char acter
ch ool
 g r
 P ol
 or ig
 o wn
 Al l
ro ss
 y ou
 A d
ur al
 o per
ment s
id ed
 ar t
 ex t
ur ch
ra ft
 d ist
 d id
 pro v
t ed
 desc rib
 supp ort
 b ack
 g overn
ion al
u red
b all
ord an
 ret urn
a u
 im p
 M an
l ed
u ed
r am
 ar ch
 comp le
ce pt
 Y ork
  %
ou se
y s
 an y
 n ear
t on
ou n
am ed
 19 1
 M e
 f eat
om an
at her
on y
 C an
un e
  $
 c ount
 v ar
os ed
 d am
 1 5
 call ed
is od
 su ccess
 e ff
 s ix
 Chr ist
 pe ople
 re port
 al ong
 ep isod
 19 7
ar s
 m usic
 p h
 op en
u es
 un t
 bec ause
u nd
 J an
ag ed
er y
g est
 1 3
 s ame
 d est
 th ough
 c are
il ity
 mill ion
 f ive
 in f
ord ing
ee k
 C ol
 h um
ag ue
 b r
t y
g y
u ch
le et
ir d
 des ign
in n
 l ife
 19 3
 an t
 J ordan
 de velop
 follow ing
iv es
 f in
 ear ly
b le
 part ic
as h
 s l
ib le
ener al
id es
 D e
o ok
 St ates
 m ay
ren ch
 d iv
 g u
 f e
 pro te
 rele ased
 unt il
s p
g et
aj or
 con st
er v
 F rench
 A fter
ore d
ain s
 bo ok
a h
 ad v
 publ ic
 sm all
 comm and
 F e
 Amer ican
u ary
 t yp
g ed
 d et
  Q
 cent ury
i am
 I I
 p rom
 J une
 F or
 E ng
 cons id
en ces
 D ec
 1 6
 g roup
 F ran
 P ro
 res ult
 S c
 an n
 ch ild
en n
 H owever
it ary
 l ike
m ed
 play ed
 g un
 B r
 d own
 Se pt
an ge
 en g
 W orld
ward s
 in st
end ed
 us e
el er
 o cc
ro y
ac ed
v en
 Sept ember
al v
 201 0
 cont ro
 a round
 po int
 cl ass
 st art
ical ly
 are a
x t
 s ince
 p ass
 st r
 P r
 G e
 e ach
 A ug
 Aug ust
 N orth
us ed
 st ate
t en
 ser v
a im
ill a
 A nd
 l ine
ut ion
 sing le
 an other
ag es
om in
ri end
 ship s
 p erson
at ely
ra ph
 he ad
 O ct
 re st
 he l
av y
 O r
 l ist
 A ust
iss ion
ect ed
il t
 n ame
 govern ment
 Oct ober
i ation
 s ent
 J ack
u c
 m od
od y
or p
 2 5
ian s
 r un
u rop
 att ack
 Dec ember
ae olog
 Jan uary
 st ory
 N ov
et s
s ide
 episod e
 3 0
ut h
 bu ild
 l and
  ]
 c he
est on
 The y
 app ear
  [
 K ing
y n
 e le
iv ely
 c ast
 19 2
 Can ad
ac hel
  ed
 to ok
l ish
ar l
is ter
 rece ived
 dif fer
 E urop
 describ ed
 T own
al k
 lar ge
el s
 s im
if ied
 re f
us s
 k m
av ing
 al though
st em
 b ased
 ex pl
 U S
le y
 fam ily
 pre v
a x
 d em
pr il
 m ar
 Europ e
i k
it ions
 s chool
 p ort
 S p
an c
el t
 ev en
 w orld
an y
 Wh ite
 with in
i ent
 is s
 A pril
 L ove
iv ing
 m ajor
y c
 M on
i um
it al
 v ers
 inc re
 w eek
 B ro
alv eston
 h and
 w ill
 al low
 R achel
 Whe eler
ul ation
  if
om et
 in it
 n amed
 m en
em pt
in ing
 or gan
 19 5
 Nov ember
 th ose
is on
 bel ie
a pp
 T e
 includ ed
 care er
 mil itary
 h ome
 con f
 m ed
 R oman
 b as
 p ower
 sh ort
 le ft
i od
 D iv
 J u
 dest roy
  es
 rev iew
ru ction
a it
 pro t
ur ther
 b re
 st ar
ivers ity
 prev ious
ay s
 b est
ro te
 o pp
 t erm
em p
 m uch
le v
re w
he n
ste in
 c ap
 Bl ack
 s outh
 d ra
 hist ory
 of ten
re t
 st and
 l ast
 a v
 f inal
ent ly
 w on
 hel p
 I r
 j ust
 re qu
. .
at ch
 ex c
 h al
 19 6
 god s
ol l
 c amp
tt en
 t it
itt le
 B e
y l
 g ames
 app ro
 sy stem
ri ed
 d ue
 spec ies
y le
 o ld
re ad
 ro le
 or der
 m ake
 wh at
 att empt
 f un
ant s
 de b
 is land
pt ion
en e
 pro f
z y
ac hed
 . ..
iv en
iv al
as ter
 add ition
 g reat
 Y ou
a i
 n orth
 n ow
ard s
og raph
 200 7
 200 8
l ine
 c ult
 G alveston
 per iod
an ces
 est ab
 ar m
iv er
 G u
ight s
c raft
a pt
 pro g
 re pl
 t urn
 st ill
at ure
 w rote
 pl ace
 p res
pp ed
r act
 f oot
 200 9
 P l
 m y
il ar
is c
 l ate
 201 1
 to p
 1 4
iet y
 Ir ish
  very
en g
 hum an
ak es
o int
r um
 H is
 bu ilt
 am ong
et er
l u
n ess
om b
in a
ide o
 re al
 loc al
 s et
ord s
 201 3
 orig inal
 200 6
 V illa
 im port
i qu
 s ite
ak en
c hed
im ent
ic a
 for ces
 m emb
 Aust ral
 C ar
 P h
 l ed
 ex per
 partic ular
 mov ed
 ca pt
er ing
ort her
h ou
av en
ec h
 p resent
 p oss
lev ision
 ev ent
 cl ub
 Mar ch
 mon th
 m ark
 H er
 C ount
 Ju ly
 f leet
 D uring
s elf
v es
 W est
 N ational
orther n
ot s
 Div ision
 differ ent
 Ar my
 N o
 st ruct
 e qu
ubl ic
 N ic
 R oss
cc ording
 s it
 su g
gy pt
 The re
ron t
 de ath
se nd
ink el
 s k
 f ire
 consid ered
 c ame
 cl aim
os p
 Un iversity
 Pol ish
ri tten
 inv ol
ac ing
 a way
 f urther
 f t
le ar
im ony
inkel stein
 Comm and
 g ener
 rep resent
 E x
 tr ad
 comm un
 E gypt
qu ad
 bec ome
 st ated
 2 3
o ff
 hal f
 C ity
 w ater
 t w
 pos ition
 be g
 pop ular
ain ing
 v is
ab or
 s oc
 C ent
 f ew
 Ch urch
b y
 2 1
 th ird
at s
ut ed
o tt
 G eneral
p ar
 S outh
 J ames
 a uth
 w in
 sug gest
tern ational
 1 00
a ur
 A ir
 sp e
 memb ers
iv il
 2 4
oy al
 t en
 L ond
 c ell
es b
i ence
u k
id ge
 publ ished
 arch aeolog
 ar r
is ing
 w ay
 Lond on
 st orm
 rel ations
o x
in c
 p ost
c on
  el
 str ong
 st re
d om
 e very
 air craft
 with out
 w ritten
p ite
 pro ject
 record ed
 tr ack
 s ide
av es
g round
 for mer
ay ing
in o
 f ar
 com b
 h owever
 W ill
o ard
 w ind
ent ion
iz e
 c ur
 k ill
 contin ued
g er
our s
 child ren
 eff ect
ight ing
 Town send
i or
 report ed
 Re p
 H ait
 to wn
esb itt
es tern
 l ow
  er
i ers
 t imes
 produ ced
 le g
en c
  &
 con v
l ing
as tern
 t ake
 Re g
v iew
 p ur
 l ess
 Nic ole
 P ort
 l im
 through out
 s old
inn ing
 e lect
 e ast
f ord
 b and
 m id
ic es
am b
 sur v
 g old
 C ra
arn ia
O n
 B y
 be h
re en
n er
om en
 hist or
 inf lu
riend s
 Le ague
pl oy
 return ed
 201 2
 count ry
on c
 g iven
 pol it
f ield
 comm on
 contro l
ur t
 pro p
 sim ilar
 Eng lish
 R ec
 j o
 relations hip
he st
ect ion
o on
 g l
au gh
b or
 F inkelstein
 w est
ens ive
 sh ould
 c over
e v
 The se
 to t
 v iew
du ced
 A ct
it her
 you ng
 he ld
m ar
 m ag
 pop ulation
 p ress
um ent
 Z hou
 N esbitt
 I m
 play er
 act iv
 su ff
  X
 te levision
 rem ained
 b ar
 g en
 re fer
 h aving
op s
 w ant
 crit ic
in ation
 d el
 Count y
st on
ra el
ur ric
 E m
en se
 t ri
 Whe n
 produ ction
 not ed
s k
 A m
on es
 e ight
re nt
 vers ion
 s ol
  !
quad ron
in ess
c om
 us ing
 or d
b s
r ing
st ant
ac es
 prof ess
 pl an
 B est
 Is rael
 Y ue
 rele ase
b ru
s h
ste ad
ie f
r ation
 S ec
 f ore
 day s
 le vel
 c our
 produ c
 Al though
 5 0
 prote ins
es e
 dif f
 success ful
our n
 st yle
a f
 2 6
 re act
 f ather
 p ri
 R oyal
 N B
 batt le
 ne xt
 ne ed
 app e
 Fe bru
 Febru ary
ist ed
 var ious
ric k
e f
 200 3
 s omet
 On e
 g ave
 N e
 n ov
 dam aged
m e
 f act
ot ed
 P al
 import ant
 r ight
urric ane
 S arnia
al es
 W ith
 A ccording
 ch art
 includ e
 tit le
se qu
 build ing
 A nt
 auth or
a el
it er
 G r
 ro ck
 F ey
 a ff
 t ro
 re ad
 r ange
 W e
 ear th
ath an
d e
 E d
 perform ed
 f ind
 E n
 st ru
ir c
 2 2
 h y
rop ical
 m aking
 ch ang
 c r
 se e
im ately
g es
m as
 D es
 tot al
on n
 int ro
 him self
 2 8
 offic ial
ir l
 l a
ang u
 King dom
 dam age
 f re
 a ward
 r ank
 ob s
 sign ific
 ass oc
 ear l
tt er
 M c
 B att
 p ar
act ers
 spec ial
in ally
um b
 E ar
 d ou
 m ount
 en c
 s ound
an z
 c ert
ab ly
ec hn
h y
 Christ mas
ap e
 f ail
 re ached
 se en
at ic
un g
 3 1
use um
p le
 H ar
c hes
  ’
og n
 A ss
ard inal
 pr im
i ol
  z
 d oll
st it
or ies
 ent ire
as k
al d
 H ol
us h
 p ut
 Brit ain
 prote in
 B ey
 v ideo
 do es
 inter est
 se tt
 f elt
 to o
en ed
 P ark
 H ist
 ser ved
at ory
 le ast
 man ag
 M ich
re g
ic o
 po em
ap an
 h ig
  ide
ee p
 g ood
 song s
 estab l
 h old
 pro c
 N avy
a ul
 S ong
v al
 st at
id s
ant ic
 4 0
 develop ed
al th
 m ove
 f em
 f ull
ap er
 d r
 N orthern
 M ad
 Rep ublic
em y
ign ed
a ff
 cre ated
 l ight
op e
 loc ated
ress ed
at or
al t
 foot ball
ul f
ol ic
 l angu
l er
ar ch
ran g
 J apan
 ann oun
 other s
 h ow
 n ational
i ated
 b ase
 ab le
pp ing
 play ers
ic ult
 n ever
 M usic
 resp ect
 establ ished
 A f
w s
 C ath
 m ix
 ac cept
 B ill
 M ed
itt ed
o ad
e tt
st er
 t er
h am
 gun s
 d ied
 m other
du ct
 S u
 fe et
 Canad ian
 a ge
 g round
amp le
 nov el
en ced
ell ing
 b orn
c ent
 Ge or
 200 5
 to get
 toget her
 se x
 G A
 perform ance
M S
 oper ations
v ing
 es c
 2 7
m s
 18 9
 ag re
ric t
 t aken
 c irc
 st e
 a ud
 dec l
 de ities
 char acters
 diff icult
 se ven
 col l
 con d
ach ing
 rel ig
 ac ross
c her
 R ed
iz ation
ed y
 w ent
 trad ition
 J ew
 ant imony
ri es
 m iss
 t re
 for ce
 M in
 f ront
ke y
o res
 B ar
 signific ant
 s ou
 tra ining
z z
 D av
 R out
 m m
 f ig
 H aven
iv id
 bec om
 eff ort
 l oss
 su per
 Ind ian
al y
 est im
 bro ad
 Is land
v ers
or ing
b r
 At l
 n ight
 l aw
 b us
 ar g
 C he
 r ad
 disc over
M L
 e ither
 l ook
  ident
 mod ern
 U K
w ork
ear ch
ed er
 const ruction
 w all
 con n
 v al
 M ark
 f und
 ad m
 C up
 Af ric
y ing
 M or
 writ ing
 Ind ia
 200 4
 T ru
g a
 serv ice
 dep ict
 ro ad
 t est
 Cra zy
 201 4
lect ed
 t ru
att er
s c
 c ivil
 l ost
d ay
 de v
 G reat
 A c
 c as
m ing
 201 5
 follow ed
 direct or
 on ce
 f ield
 though t
 iss ue
 F l
 Com p
ist ic
n ing
 c ru
c ial
  round
 f if
 C o
 app oint
 p at
 prog ram
 v oc
 Rout e
it z
 form ed
 play ing
 ind ivid
 g row
ut es
 b ody
 event ually
 18 6
 St ate
ain t
 19 0
ther n
 sc ored
 Austral ia
 c ou
 R uss
 s our
 v iol
 ex ample
ill o
 h urricane
 Con stant
 occ ur
 T o
h od
ect s
 g eneral
it ing
enc y
un k
 f av
 acc om
 appe ared
 a ver
 bre ak
ay er
 to ur
id ing
 Europe an
 are as
eat s
 Bey onc
 Ch ar
em ents
 l ive
 2 9
h ib
 R ock
i ber
 dra w
 l ittle
 t echn
 Ar ch
 ca used
 f ree
il le
 C ardinal
 f ac
an i
 point s
 h ouse
 particular ly
 in sp
 in stead
rough t
 18 7
 t aking
c o
 H ouse
 Will iam
 cl ose
 T r
 Amer ica
iv a
 t ropical
 l ove
id ence
 c reat
 a ction
al ity
 av ail
at ural
ec ut
m ost
 L ock
ograph y
are nt
 F irst
olog y
 S w
 com mer
 H ow
 week s
med i
v an
 S ar
 h ar
 gr ad
l ess
emp or
ep end
 c e
 imp ro
 up on
 m ater
 work ed
az ine
 announ ced
 tro ops
 mil es
 18 8
 w omen
 A ng
 w ife
 h om
 P ar
 rec ogn
 le ague
le ge
 E l
ust ry
ly ing
 s on
 exc av
it ive
 p ra
 individ ual
 un its
 s w
 resp ons
 lead ing
 prov ided
z e
at he
 T wo
os ing
 me et
 co ast
am ent
ra p
 Dav id
 p il
 Canad a
 F leet
 Sh iva
ov iet
 NB A
 N athan
 open ing
 inter view
 design ed
 writ er
 sign ed
 beh ind
 b ill
 wh ite
 A ML
 sp acing
 Wh ile
ran ch
s en
pp er
 adv ant
 as k
 eng ine
at a
 pl ann
 v ol
 for ced
 Reg iment
 b rought
 Un ion
 con duct
 G l
o ice
on t
 4 5
 langu age
 polit ical
 occ up
 A wards
 conc ert
 t reat
er ous
um p
 invol ved
 P e
 comple ted
 proc ess
 start ed
ant ry
 c or
 S chool
 Ear ly
ch ol
n e
 l ack
 W ild
 jo ined
 G od
 S quadron
b ar
 m ass
 sy m
 v ill
 pe ak
  ?
oy s
pl ay
ec ess
ap s
way s
 init ially
ac y
 S im
 stud y
 me as
A fter
 earl ier
le ment
 s ail
 Fran k
 pr act
j illo
ri a
ri pt
ol ution
ch ie
ough t
ib ility
 L ittle
 pro per
av al
 R iver
 P ri
 Eng land
d le
 N H
 four th
 Cath olic
 fl ood
 bus iness
e an
a ult
pl es
ra k
 Jew ish
 S oviet
 crit ics
 mater ial
 dec ided
 orig inally
 re ve
 s um
e h
 cent ral
ag o
 ch urch
g g
 inv est
 7 6
 Hait i
 ob ject
on st
as ing
o id
ur b
 Fran ce
 Constant ine
il ities
le t
 fem ale
 destroy ed
 d en
 a chie
 pro ble
 offic ers
e al
 em ploy
 ab ove
 go al
 g re
 P re
 dou ble
 h ost
ish ing
 Mich ael
 se a
 reg ular
 t em
 b ur
 Tru jillo
bor ough
 Batt le
 out side
 develop ment
 feat ures
 ev ents
 avail able
 feat ured
 in form
 l ines
 lar gest
 h on
 Q ue
 p ast
 n ar
 la un
con om
o o
 reg ion
 m ot
ar ian
 H igh
 cur rent
b oard
oun ter
ist on
ent ial
 v ict
 se par
 want ed
i ec
 trans fer
 5 00
 M ag
 G overn
art ment
  ir
 profess ional
u ck
 c orn
 rem ains
 cre w
 bro ther
 g et
hip s
 in s
 s aying
 trans port
c ast
 L ad
 cast le
 p ers
 he avy
 m ember
 struct ure
 re d
ot e
in f
ecut ive
 kn ow
 d on
 pol ice
 S an
em or
ic ated
 th reat
 deb ut
ra g
t ain
 b omb
 e astern
yc l
 p red
 bl ack
iqu e
ro wn
 des pite
 work ing
 S ome
  ill
 R ober
 3 6
 add ed
 ed uc
ollow ing
 Geor ge
 Ass oc
 commer cial
 de al
 pri or
at ors
 per cent
 C amp
ad o
A A
ate g
 G old
 Te x
 doll ar
 K eats
ron ic
 rem ain
 advant age
orp or
A S
 c ut
u ation
 Jack son
it es
and er
 m atch
amp ions
 repl aced
 cont ract
 wind s
 E r
 S l
 cult ure
re am
 P et
 Bro wn
ab y
uk em
 me an
ab ility
 re ason
ourn al
 cl os
r ated
 to w
 qu ick
 c al
 che m
 st ation
 Christ ian
is er
olog ical
 Mon t
i us
 ph ys
 commun ity
ir al
 wh om
 rank ed
ul ly
arl iam
 Sec ond
end ing
al ed
 lim ited
 A b
 com e
du ction
ff ic
 D ep
um ents
 month s
 Ad m
 S oc
 in ternational
 partic ip
ra f
sequ ently
 belie ved
 A g
I I
 st age
 appoint ed
 f all
 en s
 F ilm
is es
 th ink
 earth qu
ry ing
 addition al
 le arn
 kill ed
le g
 gener ally
 Bl ue
 previous ly
 ord ered
 pro b
 near ly
 ra p
 claim ed
 f ru
 somet imes
 soc ial
 In ternational
 estim ated
 l ik
ce ed
ific ation
 S y
 com ment
 pos itions
 P enn
 d ram
 film s
 f ict
 s at
 E ast
 A le
 Egypt ian
p ec
 200 0
 H MS
 Tex as
arliam ent
ap rang
 II I
 ele ments
 ass igned
 ser ious
 R ich
 poss ible
 C r
 B ut
 det erm
read y
 pre vent
 Th at
 L ong
 In f
 m ust
 al most
 re n
ran ce
ress ion
 m er
 d augh
 comp et
 school s
 relig ious
 W ood
 200 2
 ear n
 im medi
u le
 P er
 s il
 cont r
 arr ived
m a
 intro duced
 r ul
 conc lud
ev o
os aur
ighting ale
us ion
 h app
rib uted
 k eep
 n on
in ct
 Rober t
le ction
iv ate
 h ours
 e conom
 R es
 W estern
 n uc
 199 0
 re b
 Ph il
 suggest ed
o f
 c ross
ed o
 review s
 T V
 Gr and
 he av
 group s
 st ates
 ab s
ar ies
ud e
e g
 c ase
ell i
 D r
 c ra
stit ute
 to wards
 m us
ar a
 c op
d en
ad es
is ions
ri f
 Th om
 open ed
 g irl
in ent
 b i
 Ac ad
 acc ording
ul ated
 B ull
ound s
 c lear
 Atl antic
 h osp
od ies
 s aw
 bl ue
 d ock
b and
 Me x
 C old
 mar ri
 le ukem
 appear ance
 m or
ir th
 w id
 so on
 V ict
r ay
ar ily
 disc uss
 e ver
fer ence
id ents
it ect
 met res
ree k
he ad
 stru ck
 ne ut
yl van
 n omin
 Y ear
az z
 O ther
 ad op
eat her
 m i
 P att
 T w
 K ore
 earthqu ake
 Sar aj
 Saraj evo
 min or
 n ine
if t
 ar my
 f ell
 rem ov
 sp ace
if y
 p ot
 f oc
 res earch
 Hist ory
 incre ased
 al ready
l ict
 e mer
 P res
 agre ed
 M ost
 a id
ra in
ell ed
 s chol
 Assoc iation
ent h
 B el
 P aul
 tw ent
g o
orp edo
wo od
 im m
 its elf
ro l
 P o
 N az
 ad apt
 comple t
 t ar
 wh ose
 ex ist
 cert ain
 T er
 h or
 3 5
a ign
 sur round
t ies
sk i
 fif th
 hig hest
 go ing
 de ad
ir ing
 sy n
 bl ock
c er
 es pec
 espec ially
 C re
 T urn
 an im
h ing
empor ary
s el
 st aff
 direct ed
 s elf
om m
oc key
  ult
 S m
 can n
ar ter
 mag azine
 f riends
 prov ide
k en
 sou thern
 g ive
 T imes
 S erv
 c m
at in
op h
 record ing
 d i
om s
 St ud
 And erson
he ast
 t orpedo
og ue
 typ e
 Q u
 C ross
 to m
er o
ber t
 C ole
 sent ence
 F riends
ers h
 Wild e
ill s
 cap ital
 fin ished
 l y
 200 1
 Cl ub
 Ar t
ect or
h ouse
 pl aced
 bo x
ing ton
 P eter
 Vict or
 ph ot
 team s
 F oot
 s ize
 int ens
 O per
 G o
er ved
 pass ed
 Pr ince
 D el
 support ed
 ex am
 manag er
and s
 l iving
 a er
 S b
 Mar l
 S R
 An iston
 go als
 st one
 person al
 H all
 acc ount
 show s
 small er
 vis it
 194 0
are t
 M et
is ation
 w ide
 h our
 in j
 be tter
 8 0
ylvan ia
 conc ern
 n atural
g raf
urt ado
 m ult
 spec ific
 met hod
 n ames
 w oman
 ev idence
on se
 det ail
 st ri
 C apt
 allow ed
 pre p
 sh ot
 b all
 mon ey
 S ur
 stud ents
st and
ent al
 NH L
 St e
 c red
oun c
 sh own
h ile
 b ad
 B ay
 A ward
orp s
emp le
 D omin
 6 0
is k
un t
 marri age
ol ay
 S o
alk y
 stand ard
 G ame
A s
 work s
re st
 resp onse
 const ruct
 po or
 B u
r ison
u el
 sub ject
 d oc
o or
 w ord
g ely
 L ater
 199 4
 M ary
 sp ent
 l iter
 f riend
 sur f
 w inning
 s low
 sh oot
 m ight
in ated
 Cent ral
 comm ission
 m ph
 press ure
 Penn s
 com edy
 se arch
b ack
 reg ard
 rel ief
at on
 18 5
 9 0
 c ycl
 under ground
 B ond
 sec ret
 them e
 U p
n ow
ur s
 r ather
tt ing
 rem aining
 comp any
ur ity
 m ach
 p aper
 estab lish
 b ri
 Col umb
 lar gely
 conduct ed
 c ost
ed ing
 S un
 199 8
al ys
 occur red
 us ually
 help ed
 aver age
ist ics
 arch itect
 a p
orm al
 m akes
ail y
 tra vel
 prim ary
e z
ll ed
 De f
 ant i
y t
 tradition al
 com pl
n y
 incre ase
 R ob
g al
 pre m
 A re
 Arch aeolog
ol f
 Marl borough
 C al
 car ried
 tar get
 award ed
 am ount
 p iec
 fe el
en es
 m useum
os ition
h a
 h op
 p air
os es
 se vent
 M id
yp e
ole c
 becom ing
 w or
 d raft
 cent er
 min ute
port s
 invest ig
 w ood
 Adm iral
 P at
ak er
 d ate
 199 5
epend ent
 v ess
 te ac
i ant
 C at
 K rak
 In stitute
 V alky
 direct ly
 he alth
 D irect
 cre ate
 sc ene
 l eng
 form s
 h ous
 b irth
 requ est
 dis p
all ed
 turn ed
as es
 obs erv
 activ ities
 ent rance
 197 0
 Soc iety
  £
s hip
 cl osed
he re
m es
 m at
 ass ist
 T im
 sex ual
n el
 St ar
 for ward
 great est
 r hy
 Serv ice
  °
 Al i
 cell s
 batt les
 oper ation
 app l
 incre asing
 H ell
 story line
 F urtado
 Me ga
 am ino
 writ ers
b ers
 most ly
 off ered
ark er
eder al
 with d
 ex cept
 contin ue
 lar ger
et h
 stud io
 en ough
 Ang el
 Foot ball
 gre ater
 sc oring
 4 4
 qu est
 n et
  +
 Col lege
 3 00
 V al
 stre ng
 Bill board
 high way
 3 2
ever al
 ra id
 div ine
yn ast
 who le
th ing
 Le on
et ball
a ire
 Pal est
 pos itive
 w estern
 to ld
en ge
 se em
 f ight
 cons ist
 f ace
 ar med
 beg inning
g r
 as p
 pur p
 Capt ain
 f ut
im ate
 prob ably
 camp aign
 P ost
 fin ally
i est
 book s
 Que en
us ing
 Austral ian
 th ings
 F I
ir t
 em b
im um
 th us
 term s
 min utes
 f r
 twent y
 w at
 Car ol
 Penns ylvania
e x
 album s
onn a
 sl ight
ul pt
 pres ident
 bl ood
 camp s
 work ers
 pra ised
 ter rit
x imately
 tru e
 over all
um e
 Ex p
 n ecess
r d
 Dep artment
en ing
re y
 att ention
 O ld
 Afric a
 acc ess
ort un
 bel ow
et ic
 de ep
 tr ade
 fail ed
c he
art s
b b
 f rag
 a u
at re
 crit ical
 ce le
ar ing
f ect
as ion
 T om
 heav ily
 sub mar
 Mex ico
 E aton
 St re
 struct ures
 Turn er
ut z
 Comp any
osaur us
 Z eal
 Zeal and
 cra ke
 O ut
 rel ated
 feat ure
 sold iers
c ient
 requ ired
 leng th
am a
 R oad
 per m
 quick ly
 Pres ident
ver t
 Bro ok
 fam il
 fav or
 suff ered
 s ister
ous ly
e en
 pr ivate
 serv ices
 Man y
 n ature
 u nd
 H um
 l og
 rem ix
 s ays
 spe ed
 U nder
 Ch arl
 h ard
 sc reen
 198 0
 ind ustry
 W eek
it ation
 199 6
o ose
 l ab
ing u
 c ounter
 f ood
 met al
qu are
ol id
 E nd
 broad cast
 Bull s
 Mark graf
ig o
 command ment
athe ws
 Valky ria
 al ways
 we ap
 offic er
sel ves
ri an
 se qu
 pl ans
 command er
 int ended
 M iss
 equ ip
D uring
 long er
 k ind
 s ac
a ut
 Se a
 init ial
 laun ched
 chang es
 h it
 Des pite
 M er
 Acad emy
 fl ight
 whe ther
 en v
 cour t
 produc er
ounc il
i res
 conclud ed
 r isk
 For ce
 d er
m en
 sc ulpt
 pl ot
 Ad am
AS P
 vill age
 Sh olay
 S aprang
 How e
 O de
 l ink
it ch
 M il
r or
 d ut
 dist inct
 build ings
 H en
orn ing
 Inf antry
 ch ange
 bri ef
ro ad
 Ch ic
 Chic ago
in ist
 daugh ter
 p arent
 rel at
p s
 sp ort
 count ries
 B re
 ext ra
 J es
 in ch
 br idge
 Char les
 act ress
 P art
ull en
 off er
 Ale x
 199 9
 G roup
 im age
 pol ic
 C ast
 C orps
 Min ister
ce an
 V ideo
 You ng
ish op
 conv oy
 A ston
 Cole man
ur g
 them selves
 C ro
f act
 l atter
 M useum
 art ists
 18 4
 six th
on ed
 she ll
 e y
 comple x
r ate
 f ans
ic ation
 co ach
 col lect
 g ot
ant a
 B er
 end ed
l in
 bo ats
 S er
 f lying
 B ec
 fig ure
 p un
 cond itions
 N orm
 fict ional
 German y
ith ic
 B os
ech ism
 Japan ese
nt hes
 s ave
 p le
s u
 Govern ment
 s af
 comp an
 l abor
ib r
 off ice
 n aval
 educ ation
 M y
 And rew
 bro ken
 inst it
ri ption
 mov ing
 M o
 sub sequently
 S ing
r ical
 new sp
te en
 exp ressed
 capt ured
an ced
 me ans
 me ant
 F ern
 De v
ers hip
 un c
 f ighting
 ra re
 F rom
 c at
und red
 R ad
b on
ul es
 react ion
b l
 Domin ican
ell ig
 in tern
 sol o
 Cl ark
 cult ural
 Pol and
 Ge off
 L ords
 Che val
 Cheval iers
aw a
 t akes
inal s
 num bers
 def eat
 appro ximately
 ide a
 remov ed
 ne g
 proble ms
 sum mer
 L ight
 194 2
r ack
 ult imately
 ask ed
 equip ment
t ained
w est
 ra il
 us es
ad d
 H osp
 respect ively
ampions hip
 V ill
 cour se
 m olec
alys is
 3 9
 surf ace
 L os
r is
 o ur
 br ing
 dec ision
 mix ed
 t ons
c ing
 dram a
  rom
 V ar
 ab ility
t ers
 fut ure
 t ur
b re
ir on
 b ound
 em ph
 res idents
 E v
 A v
 assoc iated
 sit es
ric ult
 rad io
 w eather
 L a
i ences
anc y
 j ob
 mon ument
 German s
 Roman ian
ip le
 div ided
k s
 ca use
 major ity
ank s
ri e
art ers
ill ery
i pp
al ion
 Thom as
 attempt ed
 D ist
 mar ried
 fin anc
 L and
 a ut
 ent ered
u gh
 s em
 S al
all ow
rib ution
 play off
 l o
 allow ing
 man aged
 stru gg
 Camp b
e ated
 n in
er a
i os
 comple te
t o
ors hip
 respons ible
 L ive
em a
ors es
ash ion
est s
 rec over
 prom ot
 fru it
land s
 pil ot
 slight ly
 attack ed
 qu arter
 M ill
 U N
 bas k
 b aby
 b ird
 Cat echism
 Fe i
 T int
ag od
 76 6
 d one
and ed
 un l
 ro ute
 se lected
 exper ience
it or
 pe ace
 part s
 inst rum
 construct ed
 sing er
 ly ric
 j ournal
 p u
b e
 insp ired
 transfer red
 consid er
 sur re
T h
 iss ued
 rap id
 O ver
h ood
ard en
 ro om
 194 3
 res c
 soc iety
 ch ap
 ch all
ab it
ro ph
og en
 nuc lear
 comp ared
 m ax
 call ing
 earn ed
 Sh a
 contr ast
 sour ce
 d ance
 net work
 inc hes
 O f
T V
 act ions
 U l
 cover ed
 m ention
 includ es
 emph as
 g ra
 tem per
 discover ed
 Gold en
 Are a
B C
 Stre et
 excav ation
 mount ain
 s al
 17 5
 Russ ian
 archaeolog ical
 j azz
 G ab
 L i
 St orm
ow itz
 Tint in
 M athews
 Ch ronic
S t
 un it
 appro ach
 record s
 ab and
 prop osed
 M ax
 re ject
 list ed
sen al
 199 7
 th ick
 C ivil
 f ederal
or ce
 y et
 le aving
 effort s
 Con f
 Cent er
 r an
 influ ence
qu e
 F ollowing
 bo ard
 f ired
 O ff
i ate
 represent ed
 p ow
 re duced
 de g
 accept ed
 v oice
ist ers
l os
 er a
 fre qu
ou ra
 inform ation
 h undred
ard o
 voc al
 m ic
us band
 ref used
an o
 near by
 doc ument
 D ay
 h orses
ersh owitz
 B ass
yc ake
 p en
 loc ation
 episod es
ect ive
 ac qu
 typ es
 end ing
 mus ical
 reve aled
 S en
 high ly
 appear ances
is l
 conf lict
ic ient
 ind ic
 de ploy
um n
 art ist
 un able
 196 0
 div ision
 G irl
 193 0
 194 4
 B ed
F A
 n orthern
ap ed
 mark ed
 m ale
itt ing
u ing
 immedi ately
 F our
 B C
g n
 4 00
 th ous
 S und
 d omin
 supp l
 dis s
 w ords
 g rew
iron ment
 cann ot
it ude
 ext re
 h air
ra pped
eat h
 eng aged
 193 9
 conc ent
 Direct or
us p
u an
 B o
 produc ers
 W ater
on in
 D ershowitz
ib ar
 trans l
 en emy
 te xt
 Ar m
 It s
 pol y
 pre c
a o
 iss ues
 pr inc
 con vent
 resp ond
 Sm ith
 sit uation
 m orning
 hand s
 Rec ords
or ic
 B ook
s w
her s
 hom es
ell s
 p att
 patt ern
 C ons
p an
 chang ed
 3 3
 quest ion
 E ll
 d ro
itt ee
ul a
 voc als
in us
 18 0
 Command er
 c le
 hosp ital
 Fern and
 ro les
h an
 199 1
ou d
 w ing
 St ra
 fig ures
 prom oted
A l
 7 0
 typ ically
ol k
 m o
 reg ime
 K n
 P arliament
 J im
 bask etball
 ar ts
art ial
 Z anz
 Zanz ibar
 refer red
 Re v
 offic ially
 mean ing
 u pper
 w ear
 L ike
 inc orpor
 lyric s
 att end
 own ed
j oy
 stand ing
 Rich ard
 plann ed
 Ar k
 S ince
 tow er
 start ing
 re inf
 g iving
 cons isted
 sp ir
ect ing
b o
 A pp
 ra ised
 Ch ild
ov ers
 194 1
emor ial
v ey
 v ia
ut er
 bas is
 var iety
 Jack ets
 J e
 along side
 3 8
stand ing
 It al
 st ars
 streng th
 act ing
il ed
 H ung
 Bec ause
 b odies
 dis m
 cele br
 S ch
od rom
 med ical
 B ow
 opp on
ag re
our t
g in
 c aves
 8 7
 achie ved
 cas ual
 Clark son
 ac ids
 hy g
 Lad y
 C P
 Kore an
 sl ide
re c
 hig her
 4 2
 comb ined
 b ene
 l ives
 them es
he t
p re
 withd ra
ad el
ut en
 re ar
 coll abor
ark ed
 198 8
 195 0
 be at
us es
 le ave
 opp ortun
 al tern
 sh r
 individual s
 B on
g ing
 result ed
ro g
 T rans
u ous
 histor ical
 sil ver
 D an
 attempt s
 contro lled
 s quadron
 dem onst
 adv ance
 T ri
u ated
 play s
 m ut
 199 3
 second ary
 3 7
ynast y
 old er
oc r
om er
 L ew
 o x
 co ins
 Mad ero
ag ing
 h a
ig ade
 s we
 St ef
 J ay
az er
ol i
 M L
 Wood house
 p an
op er
 s ense
 col or
 l ower
 ext ended
 p urch
eh ic
 att ract
 new ly
 M ajor
 per man
 spec im
 leg isl
or c
 proper ty
 st ay
air s
 compan ies
 o il
 activ ity
 F air
 financ ial
 te aching
 St r
 ann ual
 192 0
 l if
 r ights
i ations
 bo tt
 report s
 inter act
ch ange
 season s
 St an
 Con ference
 b ig
 dep art
 f res
 C are
 beg ins
or us
 to ward
 I ron
ent ed
 bro ke
as ure
 c er
 sevent h
 7 9
A T
 form ation
k ins
 f ully
 bur ied
 Pri est
 perform ances
 Cl ass
 s ulf
 fore st
 produ ce
n est
 pr ison
 Th rough
ellig ence
 expl ained
 cou ple
 H ou
 Con t
 stud ies
 sour ces
 Cold rum
ol ithic
 her d
 aud ience
 All osaurus
 he m
 17 6
 Chronic les
 sc ript
ound ed
 loss es
ech an
 m em
 exp ected
 gu it
 sy nthes
 Pe ople
k i
qu arters
 W ork
 Hen ry
 M ount
adel ph
adelph ia
in ity
ie uten
 G reen
 gu ard
 famil ies
 surround ing
 B ern
 f low
 parent s
h old
 H ill
 ret ired
 dis app
erv ation
 B art
 B ack
 cont ains
 G ulf
ines e
 p ick
end er
 Ad d
 j ud
 S am
i pped
 Ital ian
 J ul
 17 9
 not es
o es
 S everal
n ey
 Sec ret
ann el
 d u
 En ter
 med ia
 rest aur
 E astern
ag n
 sh are
 tra in
 comb at
 ass ault
d ess
 cre ation
 k ing
 ne igh
 adop ted
 al one
est ival
 present ed
 fac ilities
 gr ass
 s quare
 C ong
 Ch ina
ut ch
 Chr is
 prem i
 view ers
 T ime
 cop ies
oc a
 tom b
bl azer
 ac id
 archaeolog y
 leukem ia
 U T
 N S
 O mar
 che ss
 K ody
 n ation
 somet hing
 vict ory
 weap ons
 becom es
c hest
 feat uring
 d ata
 en joy
 v ehic
 wid ely
emb le
um ed
 char ge
 r iver
 art illery
er g
 Mid dle
ut ions
 Girl s
 pre par
m on
 For ces
 Afric an
 act ive
 main ly
 L atin
 lik ely
u a
 Hum an
 Ch inese
 r ate
W ith
A t
er gy
 Sw ed
 writ e
 C reek
 ident ified
 Carol ina
if f
 201 6
im s
 am b
 199 2
 init i
it ual
 sym b
 phys ical
 D em
 o d
 sc hed
 ag ricult
 pro hib
 op in
 S aint
 fun g
ag le
 s usp
ud d
b our
 G ang
 H ome
 const it
 Hou ston
 r ating
 flood ing
 T onin
 H ob
 Bed ell
 Pl ay
 com ic
 in n
 fore ign
et her
 con cept
 short ly
ar io
 determ ined
 surre nder
 official s
 5 2
 7 5
 prep ared
 p ay
 Ch ap
 do or
 B arker
 po et
 191 8
 rec omm
 S us
 pr int
 particip ated
 nar row
 d ed
end s
ell er
 re ach
 Columb us
 person nel
 contro vers
 for t
ad ed
 L u
ord er
 M att
 s ides
 Fernand ez
 M al
 project s
 cer em
 C ullen
in y
 my th
 env ironment
 f ashion
 m ur
 bene f
 mon uments
ell ow
 f ill
 effect s
w hile
 av oid
 t ax
et y
 C ouncil
 Th ree
 h usband
ro sc
 Charl ott
 Charlott e
ran ia
 j ump
 Re view
 R AA
 RAA F
 N ations
 vess els
 H ot
 N ight
 sent ences
 W ASP
R A
 c ave
am ber
at i
 Mad ison
 cycl one
aw s
ans field
 m artial
 Hait ian
 grow th
 D ar
se y
 esc ort
  ess
 track s
ak s
 t im
 K ur
 M ac
g l
 pass ing
oc ated
ess ion
 win ter
 sec urity
ock s
 S um
 Dist rict
 to day
 fl oor
 ex hib
 att ended
 mid dle
 h ired
ert ed
 influ enced
b ury
 W ay
 organ ized
 Victor ia
 fun ction
 wor st
 Sc ott
ot es
 T or
ceed ed
 4 8
v ille
 result s
 re form
 n ormal
 d om
 fam ous
 Mar ia
 st ep
 198 6
 comment ed
 e as
ra b
in i
h ar
 Enter tain
 un ivers
 thous ands
 per fect
yn am
 belie ve
a ith
 peak ed
 Cal if
 aer odrom
 air port
f all
 O x
u ff
 prim arily
 co in
 newsp aper
 adm inist
and id
 7 2
em ic
 viol ence
 G ar
 J er
 r at
 3 4
 J ust
 F inals
o e
agod a
 N ightingale
 Patt ycake
 mov es
 attack s
 T re
 m echan
r ant
 need ed
it able
 qu ality
 st o
 P ac
 wall s
 arm s
r id
ieuten ant
 so le
 W ales
 imp act
 An other
 an alysis
 prom inent
or ter
 max imum
igh th
 cons ecutive
 m om
 B ost
 num erous
 w ins
 Su per
 Sh ort
 B ob
 k ey
 n ort
 support ing
 dis pl
 N ot
 Fran c
 d ial
 schol ars
or ation
 belie f
h ist
 hum ans
 arg ued
k n
 w atch
 pract ice
ert ain
 port ray
 M us
 Calif orn
 P op
 mark et
ny i
 s out
rosc op
 sc enes
 Exp ress
 m aster
oca ust
 Norm an
 Pr ime
 archaeolog ist
 Mary land
rom et
 to ll
 Cre utz
 UT C
 def ences
al le
 c ust
ang ing
 comp osed
 t ask
 contin ues
 R am
 l ived
 creat ing
 separ ate
 I f
 vers ions
l us
ro s
ang ers
 y our
 col lection
 chem ical
ol s
 s ort
 W ash
 organ iz
 inv ited
 p aid
 histor ic
er ve
is ers
 influ ences
 bel ong
 liter ature
 S ir
 public ation
 pl ant
 vis ited
 he art
 plann ing
at ur
 an g
 mat ches
N A
 relat ively
 H ockey
 st ra
 He ad
 sc ore
 Phil adelphia
 st ating
 A p
  ver
 5 6
 cas es
w are
 far m
 count y
 On ly
ect ions
 5 7
 requ ire
ly wood
 produ ct
 g ives
 b ond
 part y
 cont emporary
 off ensive
 Alex ander
 191 4
 6 00
 All ied
kn own
 mention ed
 im ages
 W il
 beh av
ru pt
 O s
 w ides
 In ter
 act s
e er
 Bl ood
 l ot
 S ou
 re ally
an es
w ich
im in
 meet ing
 U rania
 exp ed
 NB C
 pre gn
 9 5
 Hol ocaust
 casual ties
 B alt
O T
 F A
 Sund ay
 w ild
 Israel i
 The atre
 Cr us
 Vill aret
 Hell blazer
 ind igo
 prog ress
 he ro
 un ique
