{
    "<|endoftext|>": 0,
    " ": 1,
    "!": 2,
    "\"": 3,
    "#": 4,
    "$": 5,
    "%": 6,
    "&": 7,
    "'": 8,
    "(": 9,
    ")": 10,
    "*": 11,
    "+": 12,
    ",": 13,
    "-": 14,
    ".": 15,
    "/": 16,
    "0": 17,
    "1": 18,
    "2": 19,
    "3": 20,
    "4": 21,
    "5": 22,
    "6": 23,
    "7": 24,
    "8": 25,
    "9": 26,
    ":": 27,
    ";": 28,
    "<": 29,
    "=": 30,
    ">": 31,
    "?": 32,
    "@": 33,
    "A": 34,
    "B": 35,
    "C": 36,
    "D": 37,
    "E": 38,
    "F": 39,
    "G": 40,
    "H": 41,
    "I": 42,
    "J": 43,
    "K": 44,
    "L": 45,
    "M": 46,
    "N": 47,
    "O": 48,
    "P": 49,
    "Q": 50,
    "R": 51,
    "S": 52,
    "T": 53,
    "U": 54,
    "V": 55,
    "W": 56,
    "X": 57,
    "Y": 58,
    "Z": 59,
    "[": 60,
    "]": 61,
    "^": 62,
    "_": 63,
    "`": 64,
    "a": 65,
    "b": 66,
    "c": 67,
    "d": 68,
    "e": 69,
    "f": 70,
    "g": 71,
    "h": 72,
    "i": 73,
    "j": 74,
    "k": 75,
    "l": 76,
    "m": 77,
    "n": 78,
    "o": 79,
    "p": 80,
    "q": 81,
    "r": 82,
    "s": 83,
    "t": 84,
    "u": 85,
    "v": 86,
    "w": 87,
    "x": 88,
    "y": 89,
    "z": 90,
    "}": 91,
    "~": 92,
    "£": 93,
    "°": 94,
    "Ä": 95,
    "Å": 96,
    "Æ": 97,
    "É": 98,
    "Ñ": 99,
    "Ó": 100,
    "Ö": 101,
    "×": 102,
    "Ü": 103,
    "ß": 104,
    "à": 105,
    "á": 106,
    "â": 107,
    "ã": 108,
    "ä": 109,
    "å": 110,
    "æ": 111,
    "ç": 112,
    "è": 113,
    "é": 114,
    "ê": 115,
    "ë": 116,
    "í": 117,
    "î": 118,
    "ï": 119,
    "ñ": 120,
    "ó": 121,
    "ô": 122,
    "ö": 123,
    "ø": 124,
    "ú": 125,
    "ü": 126,
    "ā": 127,
    "ă": 128,
    "ą": 129,
    "ć": 130,
    "č": 131,
    "đ": 132,
    "ĕ": 133,
    "ę": 134,
    "ğ": 135,
    "Ľ": 136,
    "Ł": 137,
    "ł": 138,
    "ń": 139,
    "Ō": 140,
    "ō": 141,
    "œ": 142,
    "ś": 143,
    "ş": 144,
    "Š": 145,
    "š": 146,
    "ţ": 147,
    "ū": 148,
    "ź": 149,
    "Ż": 150,
    "ż": 151,
    "ǎ": 152,
    "ș": 153,
    "ț": 154,
    "ɑ": 155,
    "ə": 156,
    "ɡ": 157,
    "ɪ": 158,
    "ɾ": 159,
    "ʁ": 160,
    "ʃ": 161,
    "ʊ": 162,
    "ʒ": 163,
    "ˈ": 164,
    "ˌ": 165,
    "ː": 166,
    "́": 167,
    "έ": 168,
    "ή": 169,
    "ί": 170,
    "α": 171,
    "β": 172,
    "γ": 173,
    "δ": 174,
    "ε": 175,
    "θ": 176,
    "ι": 177,
    "κ": 178,
    "λ": 179,
    "μ": 180,
    "ν": 181,
    "ξ": 182,
    "ο": 183,
    "π": 184,
    "ρ": 185,
    "ς": 186,
    "σ": 187,
    "τ": 188,
    "υ": 189,
    "χ": 190,
    "ό": 191,
    "ώ": 192,
    "К": 193,
    "а": 194,
    "в": 195,
    "з": 196,
    "й": 197,
    "к": 198,
    "н": 199,
    "р": 200,
    "с": 201,
    "ы": 202,
    "є": 203,
    "ה": 204,
    "ו": 205,
    "מ": 206,
    "ס": 207,
    "פ": 208,
    "צ": 209,
    "ש": 210,
    "أ": 211,
    "إ": 212,
    "ا": 213,
    "ة": 214,
    "ت": 215,
    "ث": 216,
    "ح": 217,
    "د": 218,
    "ر": 219,
    "س": 220,
    "ص": 221,
    "ع": 222,
    "ف": 223,
    "ق": 224,
    "ك": 225,
    "ل": 226,
    "م": 227,
    "ن": 228,
    "ي": 229,
    "ก": 230,
    "ค": 231,
    "ง": 232,
    "ช": 233,
    "ซ": 234,
    "ญ": 235,
    "ฐ": 236,
    "ณ": 237,
    "ด": 238,
    "ต": 239,
    "บ": 240,
    "ป": 241,
    "พ": 242,
    "ภ": 243,
    "ม": 244,
    "ย": 245,
    "ร": 246,
    "ล": 247,
    "ว": 248,
    "ศ": 249,
    "ษ": 250,
    "ส": 251,
    "ห": 252,
    "อ": 253,
    "ั": 254,
    "า": 255,
    "ิ": 256,
    "ี": 257,
    "ึ": 258,
    "เ": 259,
    "แ": 260,
    "ไ": 261,
    "็": 262,
    "่": 263,
    "้": 264,
    "๊": 265,
    "์": 266,
    "ᵻ": 267,
    "ḏ": 268,
    "Ḥ": 269,
    "ṣ": 270,
    "ṯ": 271,
    "ạ": 272,
    "ἀ": 273,
    "ἰ": 274,
    "ὑ": 275,
    "​": 276,
    "‐": 277,
    "–": 278,
    "—": 279,
    "‘": 280,
    "’": 281,
    "“": 282,
    "”": 283,
    "†": 284,
    "‡": 285,
    "′": 286,
    "⁄": 287,
    "₤": 288,
    "€": 289,
    "₹": 290,
    "→": 291,
    "−": 292,
    "♭": 293,
    "♯": 294,
    "〜": 295,
    "い": 296,
    "う": 297,
    "か": 298,
    "が": 299,
    "き": 300,
    "く": 301,
    "し": 302,
    "た": 303,
    "だ": 304,
    "っ": 305,
    "つ": 306,
    "な": 307,
    "の": 308,
    "め": 309,
    "も": 310,
    "ら": 311,
    "ァ": 312,
    "ア": 313,
    "イ": 314,
    "エ": 315,
    "ォ": 316,
    "キ": 317,
    "ク": 318,
    "シ": 319,
    "ス": 320,
    "タ": 321,
    "ッ": 322,
    "テ": 323,
    "デ": 324,
    "ト": 325,
    "ド": 326,
    "フ": 327,
    "ヘ": 328,
    "マ": 329,
    "ュ": 330,
    "リ": 331,
    "ル": 332,
    "ロ": 333,
    "ン": 334,
    "ヴ": 335,
    "ー": 336,
    "一": 337,
    "七": 338,
    "世": 339,
    "中": 340,
    "乙": 341,
    "云": 342,
    "人": 343,
    "今": 344,
    "侗": 345,
    "傳": 346,
    "光": 347,
    "其": 348,
    "具": 349,
    "劉": 350,
    "华": 351,
    "厂": 352,
    "台": 353,
    "同": 354,
    "名": 355,
    "君": 356,
    "周": 357,
    "命": 358,
    "咲": 359,
    "國": 360,
    "圣": 361,
    "堤": 362,
    "場": 363,
    "夕": 364,
    "大": 365,
    "夫": 366,
    "女": 367,
    "妙": 368,
    "姚": 369,
    "孟": 370,
    "宋": 371,
    "宗": 372,
    "宝": 373,
    "宫": 374,
    "岳": 375,
    "广": 376,
    "建": 377,
    "張": 378,
    "彩": 379,
    "後": 380,
    "懷": 381,
    "戦": 382,
    "挑": 383,
    "日": 384,
    "旭": 385,
    "明": 386,
    "春": 387,
    "晋": 388,
    "景": 389,
    "未": 390,
    "李": 391,
    "来": 392,
    "正": 393,
    "殿": 394,
    "母": 395,
    "沙": 396,
    "清": 397,
    "湯": 398,
    "澤": 399,
    "灯": 400,
    "灵": 401,
    "物": 402,
    "玄": 403,
    "王": 404,
    "玩": 405,
    "珂": 406,
    "琦": 407,
    "琪": 408,
    "番": 409,
    "瘡": 410,
    "祠": 411,
    "秋": 412,
    "織": 413,
    "翠": 414,
    "者": 415,
    "肖": 416,
    "膀": 417,
    "臂": 418,
    "興": 419,
    "花": 420,
    "芳": 421,
    "英": 422,
    "蘇": 423,
    "观": 424,
    "誓": 425,
    "誡": 426,
    "誰": 427,
    "许": 428,
    "谭": 429,
    "豪": 430,
    "費": 431,
    "贵": 432,
    "赤": 433,
    "運": 434,
    "部": 435,
    "里": 436,
    "金": 437,
    "銃": 438,
    "钱": 439,
    "铁": 440,
    "陈": 441,
    "集": 442,
    "霖": 443,
    "韓": 444,
    "願": 445,
    "顯": 446,
    "대": 447,
    "독": 448,
    "립": 449,
    "병": 450,
    "보": 451,
    "부": 452,
    "연": 453,
    "제": 454,
    "�": 455,
    " t": 457,
    "he": 458,
    " a": 459,
    "in": 460,
    " the": 461,
    "er": 462,
    "on": 463,
    " ,": 464,
    "re": 465,
    " s": 466,
    "ed": 467,
    " o": 468,
    " w": 469,
    "nd": 470,
    " .": 471,
    "at": 472,
    "or": 473,
    "it": 474,
    " c": 475,
    "is": 476,
    "en": 477,
    "es": 478,
    " f": 479,
    " of": 480,
    "an": 481,
    "ar": 482,
    " b": 483,
    " in": 484,
    "al": 485,
    "ing": 486,
    " p": 487,
    " and": 488,
    "as": 489,
    " to": 490,
    "ic": 491,
    "ro": 492,
    " m": 493,
    " d": 494,
    " h": 495,
    "ion": 496,
    "le": 497,
    "ou": 498,
    " re": 499,
    " T": 500,
    "il": 501,
    " \"": 502,
    "ent": 503,
    " th": 504,
    " S": 505,
    " A": 506,
    " 1": 507,
    "el": 508,
    " C": 509,
    "st": 510,
    " l": 511,
    "om": 512,
    " =": 513,
    " e": 514,
    " n": 515,
    "ac": 516,
    "ad": 517,
    "am": 518,
    "ol": 519,
    " was": 520,
    "ec": 521,
    " on": 522,
    "ur": 523,
    " B": 524,
    " g": 525,
    "ly": 526,
    " M": 527,
    " -": 528,
    "id": 529,
    " for": 530,
    "im": 531,
    " '": 532,
    " I": 533,
    "iv": 534,
    "ir": 535,
    "ig": 536,
    "et": 537,
    " as": 538,
    "ith": 539,
    " The": 540,
    "ow": 541,
    " 2": 542,
    "ot": 543,
    " H": 544,
    " st": 545,
    "ation": 546,
    "her": 547,
    "ay": 548,
    "ut": 549,
    " with": 550,
    "us": 551,
    "ers": 552,
    " that": 553,
    " be": 554,
    " P": 555,
    " R": 556,
    " is": 557,
    "em": 558,
    "ul": 559,
    "ter": 560,
    "ce": 561,
    " F": 562,
    "un": 563,
    "ch": 564,
    " wh": 565,
    "ver": 566,
    "and": 567,
    " W": 568,
    " al": 569,
    " G": 570,
    " N": 571,
    "th": 572,
    "ra": 573,
    " )": 574,
    " (": 575,
    " by": 576,
    "ct": 577,
    " con": 578,
    "os": 579,
    "est": 580,
    " L": 581,
    " D": 582,
    " an": 583,
    "ag": 584,
    " J": 585,
    "ist": 586,
    "um": 587,
    " 19": 588,
    "00": 589,
    "rom": 590,
    " it": 591,
    " he": 592,
    "av": 593,
    "od": 594,
    "ri": 595,
    "ain": 596,
    " pro": 597,
    " E": 598,
    " at": 599,
    "ort": 600,
    " from": 601,
    "ill": 602,
    " com": 603,
    " his": 604,
    "ies": 605,
    " v": 606,
    " se": 607,
    "ere": 608,
    " su": 609,
    "res": 610,
    "pp": 611,
    "if": 612,
    " de": 613,
    " O": 614,
    "oc": 615,
    "op": 616,
    "ew": 617,
    " were": 618,
    "ore": 619,
    "igh": 620,
    "ld": 621,
    "all": 622,
    "ant": 623,
    "ich": 624,
    "ak": 625,
    "ity": 626,
    "ard": 627,
    "ate": 628,
    "ong": 629,
    " or": 630,
    "gh": 631,
    "art": 632,
    " sh": 633,
    "ab": 634,
    " ex": 635,
    " r": 636,
    " ch": 637,
    " pl": 638,
    "qu": 639,
    "ber": 640,
    "pt": 641,
    "ated": 642,
    " @": 643,
    "ess": 644,
    "ud": 645,
    "rou": 646,
    "ear": 647,
    "ast": 648,
    " had": 649,
    " U": 650,
    "ov": 651,
    " are": 652,
    "ord": 653,
    " K": 654,
    "ive": 655,
    "ip": 656,
    "ect": 657,
    " which": 658,
    " sp": 659,
    "ame": 660,
    "red": 661,
    "se": 662,
    " In": 663,
    "ack": 664,
    "ian": 665,
    "ish": 666,
    "ial": 667,
    "ment": 668,
    "ell": 669,
    " St": 670,
    " u": 671,
    "ight": 672,
    " le": 673,
    "our": 674,
    "ge": 675,
    "ine": 676,
    " ;": 677,
    "rit": 678,
    "ary": 679,
    " ar": 680,
    "ost": 681,
    "ia": 682,
    "ru": 683,
    " k": 684,
    " not": 685,
    "ical": 686,
    " y": 687,
    " 200": 688,
    "nt": 689,
    " her": 690,
    " Ch": 691,
    "ther": 692,
    "ue": 693,
    "ave": 694,
    "ap": 695,
    " 3": 696,
    " un": 697,
    " 20": 698,
    "og": 699,
    "ous": 700,
    "ure": 701,
    " –": 702,
    "ide": 703,
    "fter": 704,
    "ran": 705,
    " V": 706,
    " inc": 707,
    "cc": 708,
    "ub": 709,
    "ust": 710,
    "so": 711,
    " their": 712,
    "ff": 713,
    " int": 714,
    "out": 715,
    "wo": 716,
    "irst": 717,
    "ork": 718,
    "ions": 719,
    "end": 720,
    "ould": 721,
    " also": 722,
    "own": 723,
    " cont": 724,
    "age": 725,
    "ign": 726,
    "land": 727,
    "orm": 728,
    " :": 729,
    " cl": 730,
    " res": 731,
    "The": 732,
    "ome": 733,
    " has": 734,
    "ire": 735,
    " ab": 736,
    " 4": 737,
    "ie": 738,
    " whe": 739,
    "ond": 740,
    "per": 741,
    " but": 742,
    "pl": 743,
    " ad": 744,
    " per": 745,
    "ok": 746,
    "ass": 747,
    "ult": 748,
    " its": 749,
    " 5": 750,
    " @.": 751,
    " @.@": 752,
    " first": 753,
    "ater": 754,
    "act": 755,
    " rec": 756,
    " one": 757,
    "ations": 758,
    " He": 759,
    " 201": 760,
    "ry": 761,
    "ough": 762,
    "ime": 763,
    "hed": 764,
    " been": 765,
    " two": 766,
    " play": 767,
    " have": 768,
    "du": 769,
    " Y": 770,
    "low": 771,
    " us": 772,
    "ory": 773,
    " en": 774,
    "uring": 775,
    " bec": 776,
    "ally": 777,
    " who": 778,
    " comp": 779,
    "ence": 780,
    " this": 781,
    "ite": 782,
    "ree": 783,
    " Th": 784,
    "ition": 785,
    " 18": 786,
    " off": 787,
    " ser": 788,
    "att": 789,
    " man": 790,
    " des": 791,
    "iz": 792,
    " after": 793,
    "mer": 794,
    "ely": 795,
    " dis": 796,
    " ro": 797,
    " she": 798,
    "man": 799,
    "ile": 800,
    " @,": 801,
    " @,@": 802,
    "lud": 803,
    "are": 804,
    "ric": 805,
    " part": 806,
    "ke": 807,
    " sc": 808,
    "ach": 809,
    " Al": 810,
    " j": 811,
    " ag": 812,
    "nder": 813,
    "ib": 814,
    " im": 815,
    " year": 816,
    "ance": 817,
    " other": 818,
    " app": 819,
    "port": 820,
    "ount": 821,
    " te": 822,
    "ember": 823,
    " It": 824,
    "ces": 825,
    "over": 826,
    " over": 827,
    " Un": 828,
    " pre": 829,
    "ound": 830,
    " out": 831,
    "te": 832,
    "old": 833,
    "ang": 834,
    "ark": 835,
    " they": 836,
    "ited": 837,
    "ice": 838,
    "ress": 839,
    "oy": 840,
    " up": 841,
    "ade": 842,
    "ction": 843,
    "wn": 844,
    "ced": 845,
    "ason": 846,
    "ild": 847,
    "int": 848,
    " comm": 849,
    "rough": 850,
    " includ": 851,
    "ph": 852,
    "round": 853,
    " att": 854,
    "ey": 855,
    "ors": 856,
    "ied": 857,
    "ents": 858,
    "ubl": 859,
    "able": 860,
    " time": 861,
    " 8": 862,
    "ious": 863,
    " all": 864,
    " Re": 865,
    " into": 866,
    "ates": 867,
    "les": 868,
    "urn": 869,
    "ood": 870,
    "ace": 871,
    "ward": 872,
    "ose": 873,
    " 7": 874,
    " more": 875,
    " rem": 876,
    "we": 877,
    " would": 878,
    "ft": 879,
    "ron": 880,
    " 6": 881,
    " ev": 882,
    "ind": 883,
    " them": 884,
    "ased": 885,
    " work": 886,
    "ock": 887,
    "ever": 888,
    "ail": 889,
    "itt": 890,
    "ase": 891,
    "reat": 892,
    " under": 893,
    "ake": 894,
    "ng": 895,
    "ings": 896,
    " sec": 897,
    "eat": 898,
    " most": 899,
    "form": 900,
    "ilm": 901,
    "ered": 902,
    "ix": 903,
    " cons": 904,
    " rel": 905,
    "ens": 906,
    "inal": 907,
    " ear": 908,
    " him": 909,
    "gan": 910,
    " new": 911,
    "ee": 912,
    "fer": 913,
    "rib": 914,
    "tern": 915,
    "ular": 916,
    "ins": 917,
    " Z": 918,
    " Ar": 919,
    "one": 920,
    " only": 921,
    "ict": 922,
    "ons": 923,
    " act": 924,
    "ved": 925,
    "use": 926,
    " bo": 927,
    " season": 928,
    " 199": 929,
    "ath": 930,
    " can": 931,
    " during": 932,
    " char": 933,
    "amp": 934,
    " Brit": 935,
    "vel": 936,
    " dec": 937,
    "iss": 938,
    "hip": 939,
    "ren": 940,
    " kn": 941,
    "way": 942,
    " 9": 943,
    "ational": 944,
    " ass": 945,
    "ove": 946,
    "ollow": 947,
    "ual": 948,
    "bum": 949,
    " co": 950,
    "orth": 951,
    " fl": 952,
    "ween": 953,
    "orn": 954,
    "etween": 955,
    " when": 956,
    "aw": 957,
    " film": 958,
    "oth": 959,
    " po": 960,
    "ob": 961,
    " cent": 962,
    "rop": 963,
    " am": 964,
    " three": 965,
    " end": 966,
    "oss": 967,
    " through": 968,
    " 00": 969,
    " produ": 970,
    "ities": 971,
    " num": 972,
    "ision": 973,
    "ss": 974,
    "iew": 975,
    "ily": 976,
    " album": 977,
    " Com": 978,
    " about": 979,
    " Se": 980,
    " bu": 981,
    " than": 982,
    " me": 983,
    " Mar": 984,
    " record": 985,
    "olog": 986,
    "ve": 987,
    " reg": 988,
    " pe": 989,
    " between": 990,
    " ship": 991,
    " ne": 992,
    " spec": 993,
    "ern": 994,
    " ret": 995,
    " On": 996,
    "ans": 997,
    "hn": 998,
    " ac": 999,
    "ick": 1000,
    " again": 1001,
    " such": 1002,
    " later": 1003,
    " qu": 1004,
    "ames": 1005,
    " tr": 1006,
    " sub": 1007,
    " song": 1008,
    "fore": 1009,
    "ener": 1010,
    " while": 1011,
    " so": 1012,
    "orld": 1013,
    " pr": 1014,
    " ra": 1015,
    "In": 1016,
    " 000": 1017,
    " four": 1018,
    " inter": 1019,
    " form": 1020,
    " publ": 1021,
    " 0": 1022,
    " New": 1023,
    " supp": 1024,
    "az": 1025,
    " rele": 1026,
    " Sh": 1027,
    "ert": 1028,
    " col": 1029,
    " follow": 1030,
    " some": 1031,
    " Le": 1032,
    " She": 1033,
    "ating": 1034,
    " do": 1035,
    " made": 1036,
    "ics": 1037,
    "ished": 1038,
    "outh": 1039,
    "other": 1040,
    " second": 1041,
    " mon": 1042,
    " where": 1043,
    " ind": 1044,
    "erman": 1045,
    "ike": 1046,
    "aid": 1047,
    " air": 1048,
    " British": 1049,
    " sur": 1050,
    " lar": 1051,
    " acc": 1052,
    " being": 1053,
    "ral": 1054,
    " def": 1055,
    "ug": 1056,
    "iel": 1057,
    "lect": 1058,
    " Jo": 1059,
    "ived": 1060,
    " sy": 1061,
    "als": 1062,
    "ined": 1063,
    " 10": 1064,
    " ca": 1065,
    " German": 1066,
    "ale": 1067,
    " call": 1068,
    "ince": 1069,
    " 12": 1070,
    " bl": 1071,
    " Bl": 1072,
    " number": 1073,
    " sever": 1074,
    " United": 1075,
    "usic": 1076,
    "arn": 1077,
    "owever": 1078,
    " day": 1079,
    " 17": 1080,
    "rans": 1081,
    "ject": 1082,
    " before": 1083,
    " rep": 1084,
    " there": 1085,
    " ent": 1086,
    "irect": 1087,
    "ines": 1088,
    "ull": 1089,
    " 194": 1090,
    " Wh": 1091,
    "ific": 1092,
    "aj": 1093,
    " years": 1094,
    "ll": 1095,
    " inv": 1096,
    "hes": 1097,
    " This": 1098,
    "ife": 1099,
    "ep": 1100,
    "ck": 1101,
    " both": 1102,
    " main": 1103,
    "erson": 1104,
    "ink": 1105,
    "air": 1106,
    "ised": 1107,
    " loc": 1108,
    " no": 1109,
    " pol": 1110,
    " high": 1111,
    " pop": 1112,
    "ole": 1113,
    " used": 1114,
    " tra": 1115,
    " team": 1116,
    " met": 1117,
    " sing": 1118,
    "yp": 1119,
    " became": 1120,
    "ican": 1121,
    " then": 1122,
    "son": 1123,
    "overn": 1124,
    " cre": 1125,
    "ained": 1126,
    "ury": 1127,
    "though": 1128,
    " perform": 1129,
    " game": 1130,
    " Whe": 1131,
    " Ind": 1132,
    " well": 1133,
    "very": 1134,
    " series": 1135,
    " many": 1136,
    "up": 1137,
    " exp": 1138,
    " war": 1139,
    " long": 1140,
    " Amer": 1141,
    "ures": 1142,
    " conc": 1143,
    "elf": 1144,
    "ank": 1145,
    "der": 1146,
    " An": 1147,
    "iet": 1148,
    " op": 1149,
    "resent": 1150,
    "ts": 1151,
    "oot": 1152,
    " we": 1153,
    "ism": 1154,
    " 198": 1155,
    " rev": 1156,
    " trans": 1157,
    "row": 1158,
    " dif": 1159,
    " mov": 1160,
    " go": 1161,
    "ired": 1162,
    " Con": 1163,
    "reland": 1164,
    " known": 1165,
    "ann": 1166,
    " sign": 1167,
    " em": 1168,
    "ful": 1169,
    " city": 1170,
    " including": 1171,
    "ool": 1172,
    " —": 1173,
    "hel": 1174,
    "ute": 1175,
    " hist": 1176,
    " bro": 1177,
    "ower": 1178,
    "ause": 1179,
    " several": 1180,
    "erm": 1181,
    " writ": 1182,
    "ste": 1183,
    " add": 1184,
    " Ireland": 1185,
    " At": 1186,
    " stud": 1187,
    " desc": 1188,
    "ruct": 1189,
    " dep": 1190,
    " John": 1191,
    " mil": 1192,
    "ise": 1193,
    " show": 1194,
    "ared": 1195,
    " resp": 1196,
    "io": 1197,
    " Is": 1198,
    "ier": 1199,
    "aking": 1200,
    " May": 1201,
    " 11": 1202,
    "ield": 1203,
    " offic": 1204,
    " ob": 1205,
    " pos": 1206,
    " rece": 1207,
    "ists": 1208,
    "ople": 1209,
    "emb": 1210,
    "my": 1211,
    " sm": 1212,
    " fam": 1213,
    "ivers": 1214,
    " god": 1215,
    " War": 1216,
    "acter": 1217,
    " ep": 1218,
    "ane": 1219,
    "imes": 1220,
    " /": 1221,
    " As": 1222,
    "pr": 1223,
    " bel": 1224,
    " direct": 1225,
    " Chr": 1226,
    " against": 1227,
    " began": 1228,
    " lead": 1229,
    " est": 1230,
    " Cl": 1231,
    "its": 1232,
    " said": 1233,
    "ober": 1234,
    "roup": 1235,
    " min": 1236,
    "ae": 1237,
    " mill": 1238,
    " crit": 1239,
    "ized": 1240,
    "ident": 1241,
    "vent": 1242,
    " disc": 1243,
    " car": 1244,
    " found": 1245,
    " contin": 1246,
    "ccess": 1247,
    "ually": 1248,
    "ement": 1249,
    "ially": 1250,
    " batt": 1251,
    " Comm": 1252,
    " these": 1253,
    "ative": 1254,
    " could": 1255,
    "velop": 1256,
    " character": 1257,
    "chool": 1258,
    " gr": 1259,
    " Pol": 1260,
    " orig": 1261,
    " own": 1262,
    " All": 1263,
    "ross": 1264,
    " you": 1265,
    " Ad": 1266,
    "ural": 1267,
    " oper": 1268,
    "ments": 1269,
    "ided": 1270,
    " art": 1271,
    " ext": 1272,
    "urch": 1273,
    "raft": 1274,
    " dist": 1275,
    " did": 1276,
    " prov": 1277,
    "ted": 1278,
    " describ": 1279,
    " support": 1280,
    " back": 1281,
    " govern": 1282,
    "ional": 1283,
    "ured": 1284,
    "ball": 1285,
    "ordan": 1286,
    " return": 1287,
    "au": 1288,
    " imp": 1289,
    " Man": 1290,
    "led": 1291,
    "ued": 1292,
    "ram": 1293,
    " arch": 1294,
    " comple": 1295,
    "cept": 1296,
    " York": 1297,
    " %": 1298,
    "ouse": 1299,
    "ys": 1300,
    " any": 1301,
    " near": 1302,
    "ton": 1303,
    "oun": 1304,
    "amed": 1305,
    " 191": 1306,
    " Me": 1307,
    " feat": 1308,
    "oman": 1309,
    "ather": 1310,
    "ony": 1311,
    " Can": 1312,
    "une": 1313,
    " $": 1314,
    " count": 1315,
    " var": 1316,
    "osed": 1317,
    " dam": 1318,
    " 15": 1319,
    " called": 1320,
    "isod": 1321,
    " success": 1322,
    " eff": 1323,
    " six": 1324,
    " Christ": 1325,
    " people": 1326,
    " report": 1327,
    " along": 1328,
    " episod": 1329,
    " 197": 1330,
    "ars": 1331,
    " music": 1332,
    " ph": 1333,
    " open": 1334,
    "ues": 1335,
    " unt": 1336,
    " because": 1337,
    "und": 1338,
    " Jan": 1339,
    "aged": 1340,
    "ery": 1341,
    "gest": 1342,
    " 13": 1343,
    " same": 1344,
    " dest": 1345,
    " though": 1346,
    " care": 1347,
    "ility": 1348,
    " million": 1349,
    " five": 1350,
    " inf": 1351,
    "ording": 1352,
    "eek": 1353,
    " Col": 1354,
    " hum": 1355,
    "ague": 1356,
    " br": 1357,
    "ty": 1358,
    "gy": 1359,
    "uch": 1360,
    "leet": 1361,
    "ird": 1362,
    " design": 1363,
    "inn": 1364,
    " life": 1365,
    " 193": 1366,
    " ant": 1367,
    " Jordan": 1368,
    " develop": 1369,
    " following": 1370,
    "ives": 1371,
    " fin": 1372,
    " early": 1373,
    "ble": 1374,
    " partic": 1375,
    "ash": 1376,
    " sl": 1377,
    "ible": 1378,
    "eneral": 1379,
    "ides": 1380,
    " De": 1381,
    "ook": 1382,
    " States": 1383,
    " may": 1384,
    "rench": 1385,
    " div": 1386,
    " gu": 1387,
    " fe": 1388,
    " prote": 1389,
    " released": 1390,
    " until": 1391,
    "sp": 1392,
    "get": 1393,
    "ajor": 1394,
    " const": 1395,
    "erv": 1396,
    " French": 1397,
    " After": 1398,
    "ored": 1399,
    "ains": 1400,
    " book": 1401,
    "ah": 1402,
    " adv": 1403,
    " public": 1404,
    " small": 1405,
    " command": 1406,
    " Fe": 1407,
    " American": 1408,
    "uary": 1409,
    " typ": 1410,
    "ged": 1411,
    " det": 1412,
    " Q": 1413,
    " century": 1414,
    "iam": 1415,
    " II": 1416,
    " prom": 1417,
    " June": 1418,
    " For": 1419,
    " Eng": 1420,
    " consid": 1421,
    "ences": 1422,
    " Dec": 1423,
    " 16": 1424,
    " group": 1425,
    " Fran": 1426,
    " Pro": 1427,
    " result": 1428,
    " Sc": 1429,
    " ann": 1430,
    " child": 1431,
    "enn": 1432,
    " However": 1433,
    "itary": 1434,
    " like": 1435,
    "med": 1436,
    " played": 1437,
    " gun": 1438,
    " Br": 1439,
    " down": 1440,
    " Sept": 1441,
    "ange": 1442,
    " eng": 1443,
    " World": 1444,
    "wards": 1445,
    " inst": 1446,
    "ended": 1447,
    " use": 1448,
    "eler": 1449,
    " occ": 1450,
    "roy": 1451,
    "aced": 1452,
    "ven": 1453,
    " September": 1454,
    "alv": 1455,
    " 2010": 1456,
    " contro": 1457,
    " around": 1458,
    " point": 1459,
    " class": 1460,
    " start": 1461,
    "ically": 1462,
    " area": 1463,
    "xt": 1464,
    " since": 1465,
    " pass": 1466,
    " str": 1467,
    " Pr": 1468,
    " Ge": 1469,
    " each": 1470,
    " Aug": 1471,
    " August": 1472,
    " North": 1473,
    "used": 1474,
    " state": 1475,
    "ten": 1476,
    " serv": 1477,
    "aim": 1478,
    "illa": 1479,
    " And": 1480,
    " line": 1481,
    "ution": 1482,
    " single": 1483,
    " another": 1484,
    "ages": 1485,
    "omin": 1486,
    "riend": 1487,
    " ships": 1488,
    " person": 1489,
    "ately": 1490,
    "raph": 1491,
    " head": 1492,
    " Oct": 1493,
    " rest": 1494,
    " hel": 1495,
    "avy": 1496,
    " Or": 1497,
    " list": 1498,
    " Aust": 1499,
    "ission": 1500,
    "ected": 1501,
    "ilt": 1502,
    " name": 1503,
    " government": 1504,
    " October": 1505,
    "iation": 1506,
    " sent": 1507,
    " Jack": 1508,
    "uc": 1509,
    " mod": 1510,
    "ody": 1511,
    "orp": 1512,
    " 25": 1513,
    "ians": 1514,
    " run": 1515,
    "urop": 1516,
    " attack": 1517,
    " December": 1518,
    "aeolog": 1519,
    " January": 1520,
    " story": 1521,
    " Nov": 1522,
    "ets": 1523,
    "side": 1524,
    " episode": 1525,
    " 30": 1526,
    "uth": 1527,
    " build": 1528,
    " land": 1529,
    " ]": 1530,
    " che": 1531,
    "eston": 1532,
    " They": 1533,
    " appear": 1534,
    " [": 1535,
    " King": 1536,
    "yn": 1537,
    " ele": 1538,
    "ively": 1539,
    " cast": 1540,
    " 192": 1541,
    " Canad": 1542,
    "achel": 1543,
    " ed": 1544,
    " took": 1545,
    "lish": 1546,
    "arl": 1547,
    "ister": 1548,
    " received": 1549,
    " differ": 1550,
    " Europ": 1551,
    " described": 1552,
    " Town": 1553,
    "alk": 1554,
    " large": 1555,
    "els": 1556,
    " sim": 1557,
    "ified": 1558,
    " ref": 1559,
    "uss": 1560,
    " km": 1561,
    "aving": 1562,
    " although": 1563,
    "stem": 1564,
    " based": 1565,
    " expl": 1566,
    " US": 1567,
    "ley": 1568,
    " family": 1569,
    " prev": 1570,
    "ax": 1571,
    " dem": 1572,
    "pril": 1573,
    " mar": 1574,
    " Europe": 1575,
    "ik": 1576,
    "itions": 1577,
    " school": 1578,
    " port": 1579,
    " Sp": 1580,
    "anc": 1581,
    "elt": 1582,
    " even": 1583,
    " world": 1584,
    "any": 1585,
    " White": 1586,
    " within": 1587,
    "ient": 1588,
    " iss": 1589,
    " April": 1590,
    " Love": 1591,
    "iving": 1592,
    " major": 1593,
    "yc": 1594,
    " Mon": 1595,
    "ium": 1596,
    "ital": 1597,
    " vers": 1598,
    " incre": 1599,
    " week": 1600,
    " Bro": 1601,
    "alveston": 1602,
    " hand": 1603,
    " will": 1604,
    " allow": 1605,
    " Rachel": 1606,
    " Wheeler": 1607,
    "ulation": 1608,
    " if": 1609,
    "omet": 1610,
    " init": 1611,
    " named": 1612,
    " men": 1613,
    "empt": 1614,
    "ining": 1615,
    " organ": 1616,
    " 195": 1617,
    " November": 1618,
    " those": 1619,
    "ison": 1620,
    " belie": 1621,
    "app": 1622,
    " Te": 1623,
    " included": 1624,
    " career": 1625,
    " military": 1626,
    " home": 1627,
    " conf": 1628,
    " med": 1629,
    " Roman": 1630,
    " bas": 1631,
    " power": 1632,
    " short": 1633,
    " left": 1634,
    "iod": 1635,
    " Div": 1636,
    " Ju": 1637,
    " destroy": 1638,
    " es": 1639,
    " review": 1640,
    "ruction": 1641,
    "ait": 1642,
    " prot": 1643,
    "urther": 1644,
    " bre": 1645,
    " star": 1646,
    "iversity": 1647,
    " previous": 1648,
    "ays": 1649,
    " best": 1650,
    "rote": 1651,
    " opp": 1652,
    " term": 1653,
    "emp": 1654,
    " much": 1655,
    "lev": 1656,
    "rew": 1657,
    "hen": 1658,
    "stein": 1659,
    " cap": 1660,
    " Black": 1661,
    " south": 1662,
    " dra": 1663,
    " history": 1664,
    " often": 1665,
    "ret": 1666,
    " stand": 1667,
    " last": 1668,
    " av": 1669,
    " final": 1670,
    "ently": 1671,
    " won": 1672,
    " help": 1673,
    " Ir": 1674,
    " just": 1675,
    " requ": 1676,
    "..": 1677,
    "atch": 1678,
    " exc": 1679,
    " hal": 1680,
    " 196": 1681,
    " gods": 1682,
    "oll": 1683,
    " camp": 1684,
    "tten": 1685,
    " tit": 1686,
    "ittle": 1687,
    " Be": 1688,
    "yl": 1689,
    " games": 1690,
    " appro": 1691,
    " system": 1692,
    "ried": 1693,
    " due": 1694,
    " species": 1695,
    "yle": 1696,
    " old": 1697,
    "read": 1698,
    " role": 1699,
    " order": 1700,
    " make": 1701,
    " what": 1702,
    " attempt": 1703,
    " fun": 1704,
    "ants": 1705,
    " deb": 1706,
    " island": 1707,
    "ption": 1708,
    "ene": 1709,
    " prof": 1710,
    "zy": 1711,
    "ached": 1712,
    " ...": 1713,
    "iven": 1714,
    "ival": 1715,
    "aster": 1716,
    " addition": 1717,
    " great": 1718,
    " You": 1719,
    "ai": 1720,
    " north": 1721,
    " now": 1722,
    "ards": 1723,
    "ograph": 1724,
    " 2007": 1725,
    " 2008": 1726,
    "line": 1727,
    " cult": 1728,
    " Galveston": 1729,
    " period": 1730,
    "ances": 1731,
    " estab": 1732,
    " arm": 1733,
    "iver": 1734,
    " Gu": 1735,
    "ights": 1736,
    "craft": 1737,
    "apt": 1738,
    " prog": 1739,
    " repl": 1740,
    " turn": 1741,
    " still": 1742,
    "ature": 1743,
    " wrote": 1744,
    " place": 1745,
    " pres": 1746,
    "pped": 1747,
    "ract": 1748,
    " foot": 1749,
    " 2009": 1750,
    " Pl": 1751,
    " my": 1752,
    "ilar": 1753,
    "isc": 1754,
    " late": 1755,
    " 2011": 1756,
    " top": 1757,
    " 14": 1758,
    "iety": 1759,
    " Irish": 1760,
    " very": 1761,
    "eng": 1762,
    " human": 1763,
    "akes": 1764,
    "oint": 1765,
    "rum": 1766,
    " His": 1767,
    " built": 1768,
    " among": 1769,
    "eter": 1770,
    "lu": 1771,
    "ness": 1772,
    "omb": 1773,
    "ina": 1774,
    "ideo": 1775,
    " real": 1776,
    " local": 1777,
    " set": 1778,
    "ords": 1779,
    " 2013": 1780,
    " original": 1781,
    " 2006": 1782,
    " Villa": 1783,
    " import": 1784,
    "iqu": 1785,
    " site": 1786,
    "aken": 1787,
    "ched": 1788,
    "iment": 1789,
    "ica": 1790,
    " forces": 1791,
    " memb": 1792,
    " Austral": 1793,
    " Car": 1794,
    " Ph": 1795,
    " led": 1796,
    " exper": 1797,
    " particular": 1798,
    " moved": 1799,
    " capt": 1800,
    "ering": 1801,
    "orther": 1802,
    "hou": 1803,
    "aven": 1804,
    "ech": 1805,
    " present": 1806,
    " poss": 1807,
    "levision": 1808,
    " event": 1809,
    " club": 1810,
    " March": 1811,
    " month": 1812,
    " mark": 1813,
    " Her": 1814,
    " Count": 1815,
    " July": 1816,
    " fleet": 1817,
    " During": 1818,
    "self": 1819,
    "ves": 1820,
    " West": 1821,
    " National": 1822,
    "orthern": 1823,
    "ots": 1824,
    " Division": 1825,
    " different": 1826,
    " Army": 1827,
    " No": 1828,
    " struct": 1829,
    " equ": 1830,
    "ublic": 1831,
    " Nic": 1832,
    " Ross": 1833,
    "ccording": 1834,
    " sit": 1835,
    " sug": 1836,
    "gypt": 1837,
    " There": 1838,
    "ront": 1839,
    " death": 1840,
    "send": 1841,
    "inkel": 1842,
    " sk": 1843,
    " fire": 1844,
    " considered": 1845,
    " came": 1846,
    " claim": 1847,
    "osp": 1848,
    " University": 1849,
    " Polish": 1850,
    "ritten": 1851,
    " invol": 1852,
    "acing": 1853,
    " away": 1854,
    " further": 1855,
    " ft": 1856,
    "lear": 1857,
    "imony": 1858,
    "inkelstein": 1859,
    " Command": 1860,
    " gener": 1861,
    " represent": 1862,
    " Ex": 1863,
    " trad": 1864,
    " commun": 1865,
    " Egypt": 1866,
    "quad": 1867,
    " become": 1868,
    " stated": 1869,
    " 23": 1870,
    "off": 1871,
    " half": 1872,
    " City": 1873,
    " water": 1874,
    " tw": 1875,
    " position": 1876,
    " beg": 1877,
    " popular": 1878,
    "aining": 1879,
    " vis": 1880,
    "abor": 1881,
    " soc": 1882,
    " Cent": 1883,
    " few": 1884,
    " Church": 1885,
    "by": 1886,
    " 21": 1887,
    " third": 1888,
    "ats": 1889,
    "uted": 1890,
    "ott": 1891,
    " General": 1892,
    "par": 1893,
    " South": 1894,
    " James": 1895,
    " auth": 1896,
    " win": 1897,
    " suggest": 1898,
    "ternational": 1899,
    " 100": 1900,
    "aur": 1901,
    " Air": 1902,
    " spe": 1903,
    " members": 1904,
    "ivil": 1905,
    " 24": 1906,
    "oyal": 1907,
    " ten": 1908,
    " Lond": 1909,
    " cell": 1910,
    "esb": 1911,
    "ience": 1912,
    "uk": 1913,
    "idge": 1914,
    " published": 1915,
    " archaeolog": 1916,
    " arr": 1917,
    "ising": 1918,
    " way": 1919,
    " London": 1920,
    " storm": 1921,
    " relations": 1922,
    "ox": 1923,
    "inc": 1924,
    " post": 1925,
    "con": 1926,
    " el": 1927,
    " strong": 1928,
    " stre": 1929,
    "dom": 1930,
    " every": 1931,
    " aircraft": 1932,
    " without": 1933,
    " written": 1934,
    "pite": 1935,
    " project": 1936,
    " recorded": 1937,
    " track": 1938,
    " side": 1939,
    "aves": 1940,
    "ground": 1941,
    " former": 1942,
    "aying": 1943,
    "ino": 1944,
    " far": 1945,
    " comb": 1946,
    " however": 1947,
    " Will": 1948,
    "oard": 1949,
    " wind": 1950,
    "ention": 1951,
    "ize": 1952,
    " cur": 1953,
    " kill": 1954,
    " continued": 1955,
    "ger": 1956,
    "ours": 1957,
    " children": 1958,
    " effect": 1959,
    "ighting": 1960,
    " Townsend": 1961,
    "ior": 1962,
    " reported": 1963,
    " Rep": 1964,
    " Hait": 1965,
    " town": 1966,
    "esbitt": 1967,
    "estern": 1968,
    " low": 1969,
    " er": 1970,
    "iers": 1971,
    " times": 1972,
    " produced": 1973,
    " leg": 1974,
    "enc": 1975,
    " &": 1976,
    " conv": 1977,
    "ling": 1978,
    "astern": 1979,
    " take": 1980,
    " Reg": 1981,
    "view": 1982,
    " pur": 1983,
    " less": 1984,
    " Nicole": 1985,
    " Port": 1986,
    " lim": 1987,
    " throughout": 1988,
    " sold": 1989,
    "inning": 1990,
    " elect": 1991,
    " east": 1992,
    "ford": 1993,
    " band": 1994,
    " mid": 1995,
    "ices": 1996,
    "amb": 1997,
    " surv": 1998,
    " gold": 1999,
    " Cra": 2000,
    "arnia": 2001,
    "On": 2002,
    " By": 2003,
    " beh": 2004,
    "reen": 2005,
    "ner": 2006,
    "omen": 2007,
    " histor": 2008,
    " influ": 2009,
    "riends": 2010,
    " League": 2011,
    "ploy": 2012,
    " returned": 2013,
    " 2012": 2014,
    " country": 2015,
    "onc": 2016,
    " given": 2017,
    " polit": 2018,
    "field": 2019,
    " common": 2020,
    " control": 2021,
    "urt": 2022,
    " prop": 2023,
    " similar": 2024,
    " English": 2025,
    " Rec": 2026,
    " jo": 2027,
    " relationship": 2028,
    "hest": 2029,
    "ection": 2030,
    "oon": 2031,
    " gl": 2032,
    "augh": 2033,
    "bor": 2034,
    " Finkelstein": 2035,
    " west": 2036,
    "ensive": 2037,
    " should": 2038,
    " cover": 2039,
    "ev": 2040,
    " These": 2041,
    " tot": 2042,
    " view": 2043,
    "duced": 2044,
    " Act": 2045,
    "ither": 2046,
    " young": 2047,
    " held": 2048,
    "mar": 2049,
    " mag": 2050,
    " population": 2051,
    " press": 2052,
    "ument": 2053,
    " Zhou": 2054,
    " Nesbitt": 2055,
    " Im": 2056,
    " player": 2057,
    " activ": 2058,
    " suff": 2059,
    " X": 2060,
    " television": 2061,
    " remained": 2062,
    " bar": 2063,
    " gen": 2064,
    " refer": 2065,
    " having": 2066,
    "ops": 2067,
    " want": 2068,
    " critic": 2069,
    "ination": 2070,
    " del": 2071,
    " County": 2072,
    "ston": 2073,
    "rael": 2074,
    "urric": 2075,
    " Em": 2076,
    "ense": 2077,
    " tri": 2078,
    " When": 2079,
    " production": 2080,
    " noted": 2081,
    "sk": 2082,
    " Am": 2083,
    "ones": 2084,
    " eight": 2085,
    "rent": 2086,
    " version": 2087,
    " sol": 2088,
    " !": 2089,
    "quadron": 2090,
    "iness": 2091,
    "com": 2092,
    " using": 2093,
    " ord": 2094,
    "bs": 2095,
    "ring": 2096,
    "stant": 2097,
    "aces": 2098,
    " profess": 2099,
    " plan": 2100,
    " Best": 2101,
    " Israel": 2102,
    " Yue": 2103,
    " release": 2104,
    "bru": 2105,
    "sh": 2106,
    "stead": 2107,
    "ief": 2108,
    "ration": 2109,
    " Sec": 2110,
    " fore": 2111,
    " days": 2112,
    " level": 2113,
    " cour": 2114,
    " produc": 2115,
    " Although": 2116,
    " 50": 2117,
    " proteins": 2118,
    "ese": 2119,
    " diff": 2120,
    " successful": 2121,
    "ourn": 2122,
    " style": 2123,
    "af": 2124,
    " 26": 2125,
    " react": 2126,
    " father": 2127,
    " pri": 2128,
    " Royal": 2129,
    " NB": 2130,
    " battle": 2131,
    " next": 2132,
    " need": 2133,
    " appe": 2134,
    " Febru": 2135,
    " February": 2136,
    "isted": 2137,
    " various": 2138,
    "rick": 2139,
    "ef": 2140,
    " 2003": 2141,
    " somet": 2142,
    " One": 2143,
    " gave": 2144,
    " Ne": 2145,
    " nov": 2146,
    " damaged": 2147,
    "me": 2148,
    " fact": 2149,
    "oted": 2150,
    " Pal": 2151,
    " important": 2152,
    " right": 2153,
    "urricane": 2154,
    " Sarnia": 2155,
    "ales": 2156,
    " With": 2157,
    " According": 2158,
    " chart": 2159,
    " include": 2160,
    " title": 2161,
    "sequ": 2162,
    " building": 2163,
    " Ant": 2164,
    " author": 2165,
    "ael": 2166,
    "iter": 2167,
    " Gr": 2168,
    " rock": 2169,
    " Fey": 2170,
    " aff": 2171,
    " tro": 2172,
    " read": 2173,
    " range": 2174,
    " We": 2175,
    " earth": 2176,
    "athan": 2177,
    "de": 2178,
    " Ed": 2179,
    " performed": 2180,
    " find": 2181,
    " En": 2182,
    " stru": 2183,
    "irc": 2184,
    " 22": 2185,
    " hy": 2186,
    "ropical": 2187,
    " making": 2188,
    " chang": 2189,
    " cr": 2190,
    " see": 2191,
    "imately": 2192,
    "ges": 2193,
    "mas": 2194,
    " Des": 2195,
    " total": 2196,
    "onn": 2197,
    " intro": 2198,
    " himself": 2199,
    " 28": 2200,
    " official": 2201,
    "irl": 2202,
    " la": 2203,
    "angu": 2204,
    " Kingdom": 2205,
    " damage": 2206,
    " fre": 2207,
    " award": 2208,
    " rank": 2209,
    " obs": 2210,
    " signific": 2211,
    " assoc": 2212,
    " earl": 2213,
    "tter": 2214,
    " Mc": 2215,
    " Batt": 2216,
    " par": 2217,
    "acters": 2218,
    " special": 2219,
    "inally": 2220,
    "umb": 2221,
    " Ear": 2222,
    " dou": 2223,
    " mount": 2224,
    " enc": 2225,
    " sound": 2226,
    "anz": 2227,
    " cert": 2228,
    "ably": 2229,
    "echn": 2230,
    "hy": 2231,
    " Christmas": 2232,
    "ape": 2233,
    " fail": 2234,
    " reached": 2235,
    " seen": 2236,
    "atic": 2237,
    "ung": 2238,
    " 31": 2239,
    "useum": 2240,
    "ple": 2241,
    " Har": 2242,
    "ches": 2243,
    " ’": 2244,
    "ogn": 2245,
    " Ass": 2246,
    "ardinal": 2247,
    " prim": 2248,
    "iol": 2249,
    " z": 2250,
    " doll": 2251,
    "stit": 2252,
    "ories": 2253,
    " entire": 2254,
    "ask": 2255,
    "ald": 2256,
    " Hol": 2257,
    "ush": 2258,
    " put": 2259,
    " Britain": 2260,
    " protein": 2261,
    " Bey": 2262,
    " video": 2263,
    " does": 2264,
    " interest": 2265,
    " sett": 2266,
    " felt": 2267,
    " too": 2268,
    "ened": 2269,
    " Park": 2270,
    " Hist": 2271,
    " served": 2272,
    "atory": 2273,
    " least": 2274,
    " manag": 2275,
    " Mich": 2276,
    "reg": 2277,
    "ico": 2278,
    " poem": 2279,
    "apan": 2280,
    " hig": 2281,
    " ide": 2282,
    "eep": 2283,
    " good": 2284,
    " songs": 2285,
    " establ": 2286,
    " hold": 2287,
    " proc": 2288,
    " Navy": 2289,
    "aul": 2290,
    " Song": 2291,
    "val": 2292,
    " stat": 2293,
    "ids": 2294,
    "antic": 2295,
    " 40": 2296,
    " developed": 2297,
    "alth": 2298,
    " move": 2299,
    " fem": 2300,
    " full": 2301,
    "aper": 2302,
    " dr": 2303,
    " Northern": 2304,
    " Mad": 2305,
    " Republic": 2306,
    "emy": 2307,
    "igned": 2308,
    "aff": 2309,
    " created": 2310,
    " light": 2311,
    "ope": 2312,
    " located": 2313,
    "ressed": 2314,
    "ator": 2315,
    "alt": 2316,
    " football": 2317,
    "ulf": 2318,
    "olic": 2319,
    " langu": 2320,
    "ler": 2321,
    "arch": 2322,
    "rang": 2323,
    " Japan": 2324,
    " announ": 2325,
    " others": 2326,
    " how": 2327,
    " national": 2328,
    "iated": 2329,
    " base": 2330,
    " able": 2331,
    "pping": 2332,
    " players": 2333,
    "icult": 2334,
    " never": 2335,
    " Music": 2336,
    " respect": 2337,
    " established": 2338,
    " Af": 2339,
    "ws": 2340,
    " Cath": 2341,
    " mix": 2342,
    " accept": 2343,
    " Bill": 2344,
    " Med": 2345,
    "itted": 2346,
    "oad": 2347,
    "ett": 2348,
    "ster": 2349,
    " ter": 2350,
    "ham": 2351,
    " guns": 2352,
    " died": 2353,
    " mother": 2354,
    "duct": 2355,
    " Su": 2356,
    " feet": 2357,
    " Canadian": 2358,
    " age": 2359,
    " ground": 2360,
    "ample": 2361,
    " novel": 2362,
    "enced": 2363,
    "elling": 2364,
    " born": 2365,
    "cent": 2366,
    " Geor": 2367,
    " 2005": 2368,
    " toget": 2369,
    " together": 2370,
    " sex": 2371,
    " GA": 2372,
    " performance": 2373,
    "MS": 2374,
    " operations": 2375,
    "ving": 2376,
    " esc": 2377,
    " 27": 2378,
    "ms": 2379,
    " 189": 2380,
    " agre": 2381,
    "rict": 2382,
    " taken": 2383,
    " circ": 2384,
    " ste": 2385,
    " aud": 2386,
    " decl": 2387,
    " deities": 2388,
    " characters": 2389,
    " difficult": 2390,
    " seven": 2391,
    " coll": 2392,
    " cond": 2393,
    "aching": 2394,
    " relig": 2395,
    " across": 2396,
    "cher": 2397,
    " Red": 2398,
    "ization": 2399,
    "edy": 2400,
    " went": 2401,
    " tradition": 2402,
    " Jew": 2403,
    " antimony": 2404,
    "ries": 2405,
    " miss": 2406,
    " tre": 2407,
    " force": 2408,
    " Min": 2409,
    " front": 2410,
    "key": 2411,
    "ores": 2412,
    " Bar": 2413,
    " significant": 2414,
    " sou": 2415,
    " training": 2416,
    "zz": 2417,
    " Dav": 2418,
    " Rout": 2419,
    " mm": 2420,
    " fig": 2421,
    " Haven": 2422,
    "ivid": 2423,
    " becom": 2424,
    " effort": 2425,
    " loss": 2426,
    " super": 2427,
    " Indian": 2428,
    "aly": 2429,
    " estim": 2430,
    " broad": 2431,
    " Island": 2432,
    "vers": 2433,
    "oring": 2434,
    "br": 2435,
    " Atl": 2436,
    " night": 2437,
    " law": 2438,
    " bus": 2439,
    " arg": 2440,
    " Che": 2441,
    " rad": 2442,
    " discover": 2443,
    "ML": 2444,
    " either": 2445,
    " look": 2446,
    " ident": 2447,
    " modern": 2448,
    " UK": 2449,
    "work": 2450,
    "earch": 2451,
    "eder": 2452,
    " construction": 2453,
    " wall": 2454,
    " conn": 2455,
    " val": 2456,
    " Mark": 2457,
    " fund": 2458,
    " adm": 2459,
    " Cup": 2460,
    " Afric": 2461,
    "ying": 2462,
    " Mor": 2463,
    " writing": 2464,
    " India": 2465,
    " 2004": 2466,
    " Tru": 2467,
    "ga": 2468,
    " service": 2469,
    " depict": 2470,
    " road": 2471,
    " test": 2472,
    " Crazy": 2473,
    " 2014": 2474,
    "lected": 2475,
    " tru": 2476,
    "atter": 2477,
    "sc": 2478,
    " civil": 2479,
    " lost": 2480,
    "day": 2481,
    " dev": 2482,
    " Great": 2483,
    " Ac": 2484,
    " cas": 2485,
    "ming": 2486,
    " 2015": 2487,
    " followed": 2488,
    " director": 2489,
    " once": 2490,
    " field": 2491,
    " thought": 2492,
    " issue": 2493,
    " Fl": 2494,
    " Comp": 2495,
    "istic": 2496,
    "ning": 2497,
    " cru": 2498,
    "cial": 2499,
    " round": 2500,
    " fif": 2501,
    " Co": 2502,
    " appoint": 2503,
    " pat": 2504,
    " program": 2505,
    " voc": 2506,
    " Route": 2507,
    "itz": 2508,
    " formed": 2509,
    " playing": 2510,
    " individ": 2511,
    " grow": 2512,
    "utes": 2513,
    " body": 2514,
    " eventually": 2515,
    " 186": 2516,
    " State": 2517,
    "aint": 2518,
    " 190": 2519,
    "thern": 2520,
    " scored": 2521,
    " Australia": 2522,
    " cou": 2523,
    " Russ": 2524,
    " sour": 2525,
    " viol": 2526,
    " example": 2527,
    "illo": 2528,
    " hurricane": 2529,
    " Constant": 2530,
    " occur": 2531,
    " To": 2532,
    "hod": 2533,
    "ects": 2534,
    " general": 2535,
    "iting": 2536,
    "ency": 2537,
    "unk": 2538,
    " fav": 2539,
    " accom": 2540,
    " appeared": 2541,
    " aver": 2542,
    " break": 2543,
    "ayer": 2544,
    " tour": 2545,
    "iding": 2546,
    " European": 2547,
    " areas": 2548,
    "eats": 2549,
    " Beyonc": 2550,
    " Char": 2551,
    "ements": 2552,
    " live": 2553,
    " 29": 2554,
    "hib": 2555,
    " Rock": 2556,
    "iber": 2557,
    " draw": 2558,
    " little": 2559,
    " techn": 2560,
    " Arch": 2561,
    " caused": 2562,
    " free": 2563,
    "ille": 2564,
    " Cardinal": 2565,
    " fac": 2566,
    "ani": 2567,
    " points": 2568,
    " house": 2569,
    " particularly": 2570,
    " insp": 2571,
    " instead": 2572,
    "rought": 2573,
    " 187": 2574,
    " taking": 2575,
    "co": 2576,
    " House": 2577,
    " William": 2578,
    " close": 2579,
    " Tr": 2580,
    " America": 2581,
    "iva": 2582,
    " tropical": 2583,
    " love": 2584,
    "idence": 2585,
    " creat": 2586,
    " action": 2587,
    "ality": 2588,
    " avail": 2589,
    "atural": 2590,
    "ecut": 2591,
    "most": 2592,
    " Lock": 2593,
    "ography": 2594,
    "arent": 2595,
    " First": 2596,
    "ology": 2597,
    " Sw": 2598,
    " commer": 2599,
    " How": 2600,
    " weeks": 2601,
    "medi": 2602,
    "van": 2603,
    " Sar": 2604,
    " har": 2605,
    " grad": 2606,
    "less": 2607,
    "empor": 2608,
    "epend": 2609,
    " ce": 2610,
    " impro": 2611,
    " upon": 2612,
    " mater": 2613,
    " worked": 2614,
    "azine": 2615,
    " announced": 2616,
    " troops": 2617,
    " miles": 2618,
    " 188": 2619,
    " women": 2620,
    " Ang": 2621,
    " wife": 2622,
    " hom": 2623,
    " Par": 2624,
    " recogn": 2625,
    " league": 2626,
    "lege": 2627,
    " El": 2628,
    "ustry": 2629,
    "lying": 2630,
    " son": 2631,
    " excav": 2632,
    "itive": 2633,
    " pra": 2634,
    " individual": 2635,
    " units": 2636,
    " sw": 2637,
    " respons": 2638,
    " leading": 2639,
    " provided": 2640,
    "ze": 2641,
    "athe": 2642,
    " Two": 2643,
    "osing": 2644,
    " meet": 2645,
    " coast": 2646,
    "ament": 2647,
    "rap": 2648,
    " David": 2649,
    " pil": 2650,
    " Canada": 2651,
    " Fleet": 2652,
    " Shiva": 2653,
    "oviet": 2654,
    " NBA": 2655,
    " Nathan": 2656,
    " opening": 2657,
    " interview": 2658,
    " designed": 2659,
    " writer": 2660,
    " signed": 2661,
    " behind": 2662,
    " bill": 2663,
    " white": 2664,
    " AML": 2665,
    " spacing": 2666,
    " While": 2667,
    "ranch": 2668,
    "sen": 2669,
    "pper": 2670,
    " advant": 2671,
    " ask": 2672,
    " engine": 2673,
    "ata": 2674,
    " plann": 2675,
    " vol": 2676,
    " forced": 2677,
    " Regiment": 2678,
    " brought": 2679,
    " Union": 2680,
    " conduct": 2681,
    " Gl": 2682,
    "oice": 2683,
    "ont": 2684,
    " 45": 2685,
    " language": 2686,
    " political": 2687,
    " occup": 2688,
    " Awards": 2689,
    " concert": 2690,
    " treat": 2691,
    "erous": 2692,
    "ump": 2693,
    " involved": 2694,
    " Pe": 2695,
    " completed": 2696,
    " process": 2697,
    " started": 2698,
    "antry": 2699,
    " cor": 2700,
    " School": 2701,
    " Early": 2702,
    "chol": 2703,
    "ne": 2704,
    " lack": 2705,
    " Wild": 2706,
    " joined": 2707,
    " God": 2708,
    " Squadron": 2709,
    "bar": 2710,
    " mass": 2711,
    " sym": 2712,
    " vill": 2713,
    " peak": 2714,
    " ?": 2715,
    "oys": 2716,
    "play": 2717,
    "ecess": 2718,
    "aps": 2719,
    "ways": 2720,
    " initially": 2721,
    "acy": 2722,
    " Sim": 2723,
    " study": 2724,
    " meas": 2725,
    "After": 2726,
    " earlier": 2727,
    "lement": 2728,
    " sail": 2729,
    " Frank": 2730,
    " pract": 2731,
    "jillo": 2732,
    "ria": 2733,
    "ript": 2734,
    "olution": 2735,
    "chie": 2736,
    "ought": 2737,
    "ibility": 2738,
    " Little": 2739,
    " proper": 2740,
    "aval": 2741,
    " River": 2742,
    " Pri": 2743,
    " England": 2744,
    "dle": 2745,
    " NH": 2746,
    " fourth": 2747,
    " Catholic": 2748,
    " flood": 2749,
    " business": 2750,
    "ean": 2751,
    "ault": 2752,
    "ples": 2753,
    "rak": 2754,
    " Jewish": 2755,
    " Soviet": 2756,
    " critics": 2757,
    " material": 2758,
    " decided": 2759,
    " originally": 2760,
    " reve": 2761,
    " sum": 2762,
    "eh": 2763,
    " central": 2764,
    "ago": 2765,
    " church": 2766,
    "gg": 2767,
    " invest": 2768,
    " 76": 2769,
    " Haiti": 2770,
    " object": 2771,
    "onst": 2772,
    "asing": 2773,
    "oid": 2774,
    "urb": 2775,
    " France": 2776,
    " Constantine": 2777,
    "ilities": 2778,
    "let": 2779,
    " female": 2780,
    " destroyed": 2781,
    " den": 2782,
    " achie": 2783,
    " proble": 2784,
    " officers": 2785,
    "eal": 2786,
    " employ": 2787,
    " above": 2788,
    " goal": 2789,
    " gre": 2790,
    " Pre": 2791,
    " double": 2792,
    " host": 2793,
    "ishing": 2794,
    " Michael": 2795,
    " sea": 2796,
    " regular": 2797,
    " tem": 2798,
    " bur": 2799,
    " Trujillo": 2800,
    "borough": 2801,
    " Battle": 2802,
    " outside": 2803,
    " development": 2804,
    " features": 2805,
    " events": 2806,
    " available": 2807,
    " featured": 2808,
    " inform": 2809,
    " lines": 2810,
    " largest": 2811,
    " hon": 2812,
    " Que": 2813,
    " past": 2814,
    " nar": 2815,
    " laun": 2816,
    "conom": 2817,
    "oo": 2818,
    " region": 2819,
    " mot": 2820,
    "arian": 2821,
    " High": 2822,
    " current": 2823,
    "board": 2824,
    "ounter": 2825,
    "iston": 2826,
    "ential": 2827,
    " vict": 2828,
    " separ": 2829,
    " wanted": 2830,
    "iec": 2831,
    " transfer": 2832,
    " 500": 2833,
    " Mag": 2834,
    " Govern": 2835,
    "artment": 2836,
    " ir": 2837,
    " professional": 2838,
    "uck": 2839,
    " corn": 2840,
    " remains": 2841,
    " crew": 2842,
    " brother": 2843,
    " get": 2844,
    "hips": 2845,
    " ins": 2846,
    " saying": 2847,
    " transport": 2848,
    "cast": 2849,
    " Lad": 2850,
    " castle": 2851,
    " pers": 2852,
    " heavy": 2853,
    " member": 2854,
    " structure": 2855,
    " red": 2856,
    "ote": 2857,
    "inf": 2858,
    "ecutive": 2859,
    " know": 2860,
    " don": 2861,
    " police": 2862,
    " San": 2863,
    "emor": 2864,
    "icated": 2865,
    " threat": 2866,
    " debut": 2867,
    "rag": 2868,
    "tain": 2869,
    " bomb": 2870,
    " eastern": 2871,
    "ycl": 2872,
    " pred": 2873,
    " black": 2874,
    "ique": 2875,
    "rown": 2876,
    " despite": 2877,
    " working": 2878,
    " Some": 2879,
    " ill": 2880,
    " Rober": 2881,
    " 36": 2882,
    " added": 2883,
    " educ": 2884,
    "ollowing": 2885,
    " George": 2886,
    " Assoc": 2887,
    " commercial": 2888,
    " deal": 2889,
    " prior": 2890,
    "ators": 2891,
    " percent": 2892,
    " Camp": 2893,
    "ado": 2894,
    "AA": 2895,
    "ateg": 2896,
    " Gold": 2897,
    " Tex": 2898,
    " dollar": 2899,
    " Keats": 2900,
    "ronic": 2901,
    " remain": 2902,
    " advantage": 2903,
    "orpor": 2904,
    "AS": 2905,
    " cut": 2906,
    "uation": 2907,
    " Jackson": 2908,
    "ites": 2909,
    "ander": 2910,
    " match": 2911,
    "ampions": 2912,
    " replaced": 2913,
    " contract": 2914,
    " winds": 2915,
    " Er": 2916,
    " Sl": 2917,
    " culture": 2918,
    "ream": 2919,
    " Pet": 2920,
    " Brown": 2921,
    "aby": 2922,
    "ukem": 2923,
    " mean": 2924,
    "ability": 2925,
    " reason": 2926,
    "ournal": 2927,
    " clos": 2928,
    "rated": 2929,
    " tow": 2930,
    " quick": 2931,
    " cal": 2932,
    " chem": 2933,
    " station": 2934,
    " Christian": 2935,
    "iser": 2936,
    "ological": 2937,
    " Mont": 2938,
    "ius": 2939,
    " phys": 2940,
    " community": 2941,
    "iral": 2942,
    " whom": 2943,
    " ranked": 2944,
    "ully": 2945,
    "arliam": 2946,
    " Second": 2947,
    "ending": 2948,
    "aled": 2949,
    " limited": 2950,
    " Ab": 2951,
    " come": 2952,
    "duction": 2953,
    "ffic": 2954,
    " Dep": 2955,
    "uments": 2956,
    " months": 2957,
    " Adm": 2958,
    " Soc": 2959,
    " international": 2960,
    " particip": 2961,
    "raf": 2962,
    "sequently": 2963,
    " believed": 2964,
    " Ag": 2965,
    "II": 2966,
    " stage": 2967,
    " appointed": 2968,
    " fall": 2969,
    " ens": 2970,
    " Film": 2971,
    "ises": 2972,
    " think": 2973,
    " earthqu": 2974,
    "rying": 2975,
    " additional": 2976,
    " learn": 2977,
    " killed": 2978,
    "leg": 2979,
    " generally": 2980,
    " Blue": 2981,
    " previously": 2982,
    " ordered": 2983,
    " prob": 2984,
    " nearly": 2985,
    " rap": 2986,
    " claimed": 2987,
    " fru": 2988,
    " sometimes": 2989,
    " social": 2990,
    " International": 2991,
    " estimated": 2992,
    " lik": 2993,
    "ceed": 2994,
    "ification": 2995,
    " Sy": 2996,
    " comment": 2997,
    " positions": 2998,
    " Penn": 2999,
    " dram": 3000,
    " films": 3001,
    " fict": 3002,
    " sat": 3003,
    " East": 3004,
    " Ale": 3005,
    " Egyptian": 3006,
    "pec": 3007,
    " 2000": 3008,
    " HMS": 3009,
    " Texas": 3010,
    "arliament": 3011,
    "aprang": 3012,
    " III": 3013,
    " elements": 3014,
    " assigned": 3015,
    " serious": 3016,
    " Rich": 3017,
    " possible": 3018,
    " Cr": 3019,
    " But": 3020,
    " determ": 3021,
    "ready": 3022,
    " prevent": 3023,
    " That": 3024,
    " Long": 3025,
    " Inf": 3026,
    " must": 3027,
    " almost": 3028,
    " ren": 3029,
    "rance": 3030,
    "ression": 3031,
    " mer": 3032,
    " daugh": 3033,
    " compet": 3034,
    " schools": 3035,
    " religious": 3036,
    " Wood": 3037,
    " 2002": 3038,
    " earn": 3039,
    " immedi": 3040,
    "ule": 3041,
    " Per": 3042,
    " sil": 3043,
    " contr": 3044,
    " arrived": 3045,
    "ma": 3046,
    " introduced": 3047,
    " rul": 3048,
    " conclud": 3049,
    "evo": 3050,
    "osaur": 3051,
    "ightingale": 3052,
    "usion": 3053,
    " happ": 3054,
    "ributed": 3055,
    " keep": 3056,
    " non": 3057,
    "inct": 3058,
    " Robert": 3059,
    "lection": 3060,
    "ivate": 3061,
    " hours": 3062,
    " econom": 3063,
    " Res": 3064,
    " Western": 3065,
    " nuc": 3066,
    " 1990": 3067,
    " reb": 3068,
    " Phil": 3069,
    " suggested": 3070,
    "of": 3071,
    " cross": 3072,
    "edo": 3073,
    " reviews": 3074,
    " TV": 3075,
    " Grand": 3076,
    " heav": 3077,
    " groups": 3078,
    " states": 3079,
    " abs": 3080,
    "aries": 3081,
    "ude": 3082,
    "eg": 3083,
    " case": 3084,
    "elli": 3085,
    " Dr": 3086,
    " cra": 3087,
    "stitute": 3088,
    " towards": 3089,
    " mus": 3090,
    "ara": 3091,
    " cop": 3092,
    "den": 3093,
    "ades": 3094,
    "isions": 3095,
    "rif": 3096,
    " Thom": 3097,
    " opened": 3098,
    " girl": 3099,
    "inent": 3100,
    " bi": 3101,
    " Acad": 3102,
    " according": 3103,
    "ulated": 3104,
    " Bull": 3105,
    "ounds": 3106,
    " clear": 3107,
    " Atlantic": 3108,
    " hosp": 3109,
    "odies": 3110,
    " saw": 3111,
    " blue": 3112,
    " dock": 3113,
    "band": 3114,
    " Mex": 3115,
    " Cold": 3116,
    " marri": 3117,
    " leukem": 3118,
    " appearance": 3119,
    " mor": 3120,
    "irth": 3121,
    " wid": 3122,
    " soon": 3123,
    " Vict": 3124,
    "ray": 3125,
    "arily": 3126,
    " discuss": 3127,
    " ever": 3128,
    "ference": 3129,
    "idents": 3130,
    "itect": 3131,
    " metres": 3132,
    "reek": 3133,
    "head": 3134,
    " struck": 3135,
    " neut": 3136,
    "ylvan": 3137,
    " nomin": 3138,
    " Year": 3139,
    "azz": 3140,
    " Other": 3141,
    " adop": 3142,
    "eather": 3143,
    " mi": 3144,
    " Patt": 3145,
    " Tw": 3146,
    " Kore": 3147,
    " earthquake": 3148,
    " Saraj": 3149,
    " Sarajevo": 3150,
    " minor": 3151,
    " nine": 3152,
    "ift": 3153,
    " army": 3154,
    " fell": 3155,
    " remov": 3156,
    " space": 3157,
    "ify": 3158,
    " pot": 3159,
    " foc": 3160,
    " research": 3161,
    " History": 3162,
    " increased": 3163,
    " already": 3164,
    "lict": 3165,
    " emer": 3166,
    " Pres": 3167,
    " agreed": 3168,
    " Most": 3169,
    " aid": 3170,
    "rain": 3171,
    "elled": 3172,
    " schol": 3173,
    " Association": 3174,
    "enth": 3175,
    " Bel": 3176,
    " Paul": 3177,
    " twent": 3178,
    "go": 3179,
    "orpedo": 3180,
    "wood": 3181,
    " imm": 3182,
    " itself": 3183,
    "rol": 3184,
    " Po": 3185,
    " Naz": 3186,
    " adapt": 3187,
    " complet": 3188,
    " tar": 3189,
    " whose": 3190,
    " exist": 3191,
    " certain": 3192,
    " Ter": 3193,
    " hor": 3194,
    " 35": 3195,
    "aign": 3196,
    " surround": 3197,
    "ties": 3198,
    "ski": 3199,
    " fifth": 3200,
    " highest": 3201,
    " going": 3202,
    " dead": 3203,
    "iring": 3204,
    " syn": 3205,
    " block": 3206,
    "cer": 3207,
    " espec": 3208,
    " especially": 3209,
    " Cre": 3210,
    " Turn": 3211,
    " anim": 3212,
    "hing": 3213,
    "emporary": 3214,
    "sel": 3215,
    " staff": 3216,
    " directed": 3217,
    " self": 3218,
    "omm": 3219,
    "ockey": 3220,
    " ult": 3221,
    " Sm": 3222,
    " cann": 3223,
    "arter": 3224,
    " magazine": 3225,
    " friends": 3226,
    " provide": 3227,
    "ken": 3228,
    " southern": 3229,
    " give": 3230,
    " Times": 3231,
    " Serv": 3232,
    " cm": 3233,
    "atin": 3234,
    "oph": 3235,
    " recording": 3236,
    " di": 3237,
    "oms": 3238,
    " Stud": 3239,
    " Anderson": 3240,
    "heast": 3241,
    " torpedo": 3242,
    "ogue": 3243,
    " type": 3244,
    " Qu": 3245,
    " Cross": 3246,
    " tom": 3247,
    "ero": 3248,
    "bert": 3249,
    " Cole": 3250,
    " sentence": 3251,
    " Friends": 3252,
    "ersh": 3253,
    " Wilde": 3254,
    "ills": 3255,
    " capital": 3256,
    " finished": 3257,
    " ly": 3258,
    " 2001": 3259,
    " Club": 3260,
    " Art": 3261,
    "ector": 3262,
    "house": 3263,
    " placed": 3264,
    " box": 3265,
    "ington": 3266,
    " Peter": 3267,
    " Victor": 3268,
    " phot": 3269,
    " teams": 3270,
    " Foot": 3271,
    " size": 3272,
    " intens": 3273,
    " Oper": 3274,
    " Go": 3275,
    "erved": 3276,
    " passed": 3277,
    " Prince": 3278,
    " Del": 3279,
    " supported": 3280,
    " exam": 3281,
    " manager": 3282,
    "ands": 3283,
    " living": 3284,
    " aer": 3285,
    " Sb": 3286,
    " Marl": 3287,
    " SR": 3288,
    " Aniston": 3289,
    " goals": 3290,
    " stone": 3291,
    " personal": 3292,
    " Hall": 3293,
    " account": 3294,
    " shows": 3295,
    " smaller": 3296,
    " visit": 3297,
    " 1940": 3298,
    "aret": 3299,
    " Met": 3300,
    "isation": 3301,
    " wide": 3302,
    " hour": 3303,
    " inj": 3304,
    " better": 3305,
    " 80": 3306,
    "ylvania": 3307,
    " concern": 3308,
    " natural": 3309,
    "graf": 3310,
    "urtado": 3311,
    " mult": 3312,
    " specific": 3313,
    " method": 3314,
    " names": 3315,
    " woman": 3316,
    " evidence": 3317,
    "onse": 3318,
    " detail": 3319,
    " stri": 3320,
    " Capt": 3321,
    " allowed": 3322,
    " prep": 3323,
    " shot": 3324,
    " ball": 3325,
    " money": 3326,
    " Sur": 3327,
    " students": 3328,
    "stand": 3329,
    "ental": 3330,
    " NHL": 3331,
    " Ste": 3332,
    " cred": 3333,
    "ounc": 3334,
    " shown": 3335,
    "hile": 3336,
    " bad": 3337,
    " Bay": 3338,
    " Award": 3339,
    "orps": 3340,
    "emple": 3341,
    " Domin": 3342,
    " 60": 3343,
    "isk": 3344,
    "unt": 3345,
    " marriage": 3346,
    "olay": 3347,
    " So": 3348,
    "alky": 3349,
    " standard": 3350,
    " Game": 3351,
    "As": 3352,
    " works": 3353,
    "rest": 3354,
    " response": 3355,
    " construct": 3356,
    " poor": 3357,
    " Bu": 3358,
    "rison": 3359,
    "uel": 3360,
    " subject": 3361,
    " doc": 3362,
    "oor": 3363,
    " word": 3364,
    "gely": 3365,
    " Later": 3366,
    " 1994": 3367,
    " Mary": 3368,
    " spent": 3369,
    " liter": 3370,
    " friend": 3371,
    " surf": 3372,
    " winning": 3373,
    " slow": 3374,
    " shoot": 3375,
    " might": 3376,
    "inated": 3377,
    " Central": 3378,
    " commission": 3379,
    " mph": 3380,
    " pressure": 3381,
    " Penns": 3382,
    " comedy": 3383,
    " search": 3384,
    "back": 3385,
    " regard": 3386,
    " relief": 3387,
    "aton": 3388,
    " 185": 3389,
    " 90": 3390,
    " cycl": 3391,
    " underground": 3392,
    " Bond": 3393,
    " secret": 3394,
    " theme": 3395,
    " Up": 3396,
    "now": 3397,
    "urs": 3398,
    " rather": 3399,
    "tting": 3400,
    " remaining": 3401,
    " company": 3402,
    "urity": 3403,
    " mach": 3404,
    " paper": 3405,
    " establish": 3406,
    " bri": 3407,
    " Columb": 3408,
    " largely": 3409,
    " conducted": 3410,
    " cost": 3411,
    "eding": 3412,
    " Sun": 3413,
    " 1998": 3414,
    "alys": 3415,
    " occurred": 3416,
    " usually": 3417,
    " helped": 3418,
    " average": 3419,
    "istics": 3420,
    " architect": 3421,
    " ap": 3422,
    "ormal": 3423,
    " makes": 3424,
    "aily": 3425,
    " travel": 3426,
    " primary": 3427,
    "ez": 3428,
    "lled": 3429,
    " Def": 3430,
    " anti": 3431,
    "yt": 3432,
    " traditional": 3433,
    " compl": 3434,
    "ny": 3435,
    " increase": 3436,
    " Rob": 3437,
    "gal": 3438,
    " prem": 3439,
    " Are": 3440,
    " Archaeolog": 3441,
    "olf": 3442,
    " Marlborough": 3443,
    " Cal": 3444,
    " carried": 3445,
    " target": 3446,
    " awarded": 3447,
    " amount": 3448,
    " piec": 3449,
    " feel": 3450,
    "enes": 3451,
    " museum": 3452,
    "osition": 3453,
    "ha": 3454,
    " hop": 3455,
    " pair": 3456,
    "oses": 3457,
    " sevent": 3458,
    " Mid": 3459,
    "ype": 3460,
    "olec": 3461,
    " becoming": 3462,
    " wor": 3463,
    " draft": 3464,
    " center": 3465,
    " minute": 3466,
    "ports": 3467,
    " investig": 3468,
    " wood": 3469,
    " Admiral": 3470,
    " Pat": 3471,
    "aker": 3472,
    " date": 3473,
    " 1995": 3474,
    "ependent": 3475,
    " vess": 3476,
    " teac": 3477,
    "iant": 3478,
    " Cat": 3479,
    " Krak": 3480,
    " Institute": 3481,
    " Valky": 3482,
    " directly": 3483,
    " health": 3484,
    " Direct": 3485,
    " create": 3486,
    " scene": 3487,
    " leng": 3488,
    " forms": 3489,
    " hous": 3490,
    " birth": 3491,
    " request": 3492,
    " disp": 3493,
    "alled": 3494,
    " turned": 3495,
    "ases": 3496,
    " observ": 3497,
    " activities": 3498,
    " entrance": 3499,
    " 1970": 3500,
    " Society": 3501,
    " £": 3502,
    "ship": 3503,
    " closed": 3504,
    "here": 3505,
    "mes": 3506,
    " mat": 3507,
    " assist": 3508,
    " Tim": 3509,
    " sexual": 3510,
    "nel": 3511,
    " Star": 3512,
    " forward": 3513,
    " greatest": 3514,
    " rhy": 3515,
    " Service": 3516,
    " °": 3517,
    " Ali": 3518,
    " cells": 3519,
    " battles": 3520,
    " operation": 3521,
    " appl": 3522,
    " increasing": 3523,
    " Hell": 3524,
    " storyline": 3525,
    " Furtado": 3526,
    " Mega": 3527,
    " amino": 3528,
    " writers": 3529,
    "bers": 3530,
    " mostly": 3531,
    " offered": 3532,
    "arker": 3533,
    "ederal": 3534,
    " withd": 3535,
    " except": 3536,
    " continue": 3537,
    " larger": 3538,
    "eth": 3539,
    " studio": 3540,
    " enough": 3541,
    " Angel": 3542,
    " Football": 3543,
    " greater": 3544,
    " scoring": 3545,
    " 44": 3546,
    " quest": 3547,
    " net": 3548,
    " +": 3549,
    " College": 3550,
    " 300": 3551,
    " Val": 3552,
    " streng": 3553,
    " Billboard": 3554,
    " highway": 3555,
    " 32": 3556,
    "everal": 3557,
    " raid": 3558,
    " divine": 3559,
    "ynast": 3560,
    " whole": 3561,
    "thing": 3562,
    " Leon": 3563,
    "etball": 3564,
    "aire": 3565,
    " Palest": 3566,
    " positive": 3567,
    " western": 3568,
    " told": 3569,
    "enge": 3570,
    " seem": 3571,
    " fight": 3572,
    " consist": 3573,
    " face": 3574,
    " armed": 3575,
    " beginning": 3576,
    "gr": 3577,
    " asp": 3578,
    " purp": 3579,
    " Captain": 3580,
    " fut": 3581,
    "imate": 3582,
    " probably": 3583,
    " campaign": 3584,
    " Post": 3585,
    " finally": 3586,
    "iest": 3587,
    " books": 3588,
    " Queen": 3589,
    "using": 3590,
    " Australian": 3591,
    " things": 3592,
    " FI": 3593,
    "irt": 3594,
    " emb": 3595,
    "imum": 3596,
    " thus": 3597,
    " terms": 3598,
    " minutes": 3599,
    " fr": 3600,
    " twenty": 3601,
    " wat": 3602,
    " Carol": 3603,
    " Pennsylvania": 3604,
    "ex": 3605,
    " albums": 3606,
    "onna": 3607,
    " slight": 3608,
    "ulpt": 3609,
    " president": 3610,
    " blood": 3611,
    " camps": 3612,
    " workers": 3613,
    " praised": 3614,
    " territ": 3615,
    "ximately": 3616,
    " true": 3617,
    " overall": 3618,
    "ume": 3619,
    " Exp": 3620,
    " necess": 3621,
    "rd": 3622,
    " Department": 3623,
    "ening": 3624,
    "rey": 3625,
    " attention": 3626,
    " Old": 3627,
    " Africa": 3628,
    " access": 3629,
    "ortun": 3630,
    " below": 3631,
    "etic": 3632,
    " deep": 3633,
    " trade": 3634,
    " failed": 3635,
    "che": 3636,
    "arts": 3637,
    "bb": 3638,
    " frag": 3639,
    " au": 3640,
    "atre": 3641,
    " critical": 3642,
    " cele": 3643,
    "aring": 3644,
    "fect": 3645,
    "asion": 3646,
    " Tom": 3647,
    " heavily": 3648,
    " submar": 3649,
    " Mexico": 3650,
    " Eaton": 3651,
    " Stre": 3652,
    " structures": 3653,
    " Turner": 3654,
    "utz": 3655,
    " Company": 3656,
    "osaurus": 3657,
    " Zeal": 3658,
    " Zealand": 3659,
    " crake": 3660,
    " Out": 3661,
    " related": 3662,
    " feature": 3663,
    " soldiers": 3664,
    "cient": 3665,
    " required": 3666,
    " length": 3667,
    "ama": 3668,
    " Road": 3669,
    " perm": 3670,
    " quickly": 3671,
    " President": 3672,
    "vert": 3673,
    " Brook": 3674,
    " famil": 3675,
    " favor": 3676,
    " suffered": 3677,
    " sister": 3678,
    "ously": 3679,
    "een": 3680,
    " private": 3681,
    " services": 3682,
    " Many": 3683,
    " nature": 3684,
    " und": 3685,
    " Hum": 3686,
    " log": 3687,
    " remix": 3688,
    " says": 3689,
    " speed": 3690,
    " Under": 3691,
    " Charl": 3692,
    " hard": 3693,
    " screen": 3694,
    " 1980": 3695,
    " industry": 3696,
    " Week": 3697,
    "itation": 3698,
    " 1996": 3699,
    "oose": 3700,
    " lab": 3701,
    "ingu": 3702,
    " counter": 3703,
    " food": 3704,
    " metal": 3705,
    "quare": 3706,
    "olid": 3707,
    " End": 3708,
    " broadcast": 3709,
    " Bulls": 3710,
    " Markgraf": 3711,
    "igo": 3712,
    " commandment": 3713,
    "athews": 3714,
    " Valkyria": 3715,
    " always": 3716,
    " weap": 3717,
    " officer": 3718,
    "selves": 3719,
    "rian": 3720,
    " sequ": 3721,
    " plans": 3722,
    " commander": 3723,
    " intended": 3724,
    " Miss": 3725,
    " equip": 3726,
    "During": 3727,
    " longer": 3728,
    " kind": 3729,
    " sac": 3730,
    "aut": 3731,
    " Sea": 3732,
    " initial": 3733,
    " launched": 3734,
    " changes": 3735,
    " hit": 3736,
    " Despite": 3737,
    " Mer": 3738,
    " Academy": 3739,
    " flight": 3740,
    " whether": 3741,
    " env": 3742,
    " court": 3743,
    " producer": 3744,
    "ouncil": 3745,
    "ires": 3746,
    " concluded": 3747,
    " risk": 3748,
    " Force": 3749,
    " der": 3750,
    "men": 3751,
    " sculpt": 3752,
    " plot": 3753,
    " Adam": 3754,
    "ASP": 3755,
    " village": 3756,
    " Sholay": 3757,
    " Saprang": 3758,
    " Howe": 3759,
    " Ode": 3760,
    " link": 3761,
    "itch": 3762,
    " Mil": 3763,
    "ror": 3764,
    " dut": 3765,
    " distinct": 3766,
    " buildings": 3767,
    " Hen": 3768,
    "orning": 3769,
    " Infantry": 3770,
    " change": 3771,
    " brief": 3772,
    "road": 3773,
    " Chic": 3774,
    " Chicago": 3775,
    "inist": 3776,
    " daughter": 3777,
    " parent": 3778,
    " relat": 3779,
    "ps": 3780,
    " sport": 3781,
    " countries": 3782,
    " Bre": 3783,
    " extra": 3784,
    " Jes": 3785,
    " inch": 3786,
    " bridge": 3787,
    " Charles": 3788,
    " actress": 3789,
    " Part": 3790,
    "ullen": 3791,
    " offer": 3792,
    " Alex": 3793,
    " 1999": 3794,
    " Group": 3795,
    " image": 3796,
    " polic": 3797,
    " Cast": 3798,
    " Corps": 3799,
    " Minister": 3800,
    "cean": 3801,
    " Video": 3802,
    " Young": 3803,
    "ishop": 3804,
    " convoy": 3805,
    " Aston": 3806,
    " Coleman": 3807,
    "urg": 3808,
    " themselves": 3809,
    " Cro": 3810,
    "fact": 3811,
    " latter": 3812,
    " Museum": 3813,
    " artists": 3814,
    " 184": 3815,
    " sixth": 3816,
    "oned": 3817,
    " shell": 3818,
    " ey": 3819,
    " complex": 3820,
    "rate": 3821,
    " fans": 3822,
    "ication": 3823,
    " coach": 3824,
    " collect": 3825,
    " got": 3826,
    "anta": 3827,
    " Ber": 3828,
    " ended": 3829,
    "lin": 3830,
    " boats": 3831,
    " Ser": 3832,
    " flying": 3833,
    " Bec": 3834,
    " figure": 3835,
    " pun": 3836,
    " conditions": 3837,
    " Norm": 3838,
    " fictional": 3839,
    " Germany": 3840,
    "ithic": 3841,
    " Bos": 3842,
    "echism": 3843,
    " Japanese": 3844,
    "nthes": 3845,
    " save": 3846,
    " ple": 3847,
    "su": 3848,
    " Government": 3849,
    " saf": 3850,
    " compan": 3851,
    " labor": 3852,
    "ibr": 3853,
    " office": 3854,
    " naval": 3855,
    " education": 3856,
    " My": 3857,
    " Andrew": 3858,
    " broken": 3859,
    " instit": 3860,
    "ription": 3861,
    " moving": 3862,
    " Mo": 3863,
    " subsequently": 3864,
    " Sing": 3865,
    "rical": 3866,
    " newsp": 3867,
    "teen": 3868,
    " expressed": 3869,
    " captured": 3870,
    "anced": 3871,
    " means": 3872,
    " meant": 3873,
    " Fern": 3874,
    " Dev": 3875,
    "ership": 3876,
    " unc": 3877,
    " fighting": 3878,
    " rare": 3879,
    " From": 3880,
    " cat": 3881,
    "undred": 3882,
    " Rad": 3883,
    "bon": 3884,
    "ules": 3885,
    " reaction": 3886,
    "bl": 3887,
    " Dominican": 3888,
    "ellig": 3889,
    " intern": 3890,
    " solo": 3891,
    " Clark": 3892,
    " cultural": 3893,
    " Poland": 3894,
    " Geoff": 3895,
    " Lords": 3896,
    " Cheval": 3897,
    " Chevaliers": 3898,
    "awa": 3899,
    " takes": 3900,
    "inals": 3901,
    " numbers": 3902,
    " defeat": 3903,
    " approximately": 3904,
    " idea": 3905,
    " removed": 3906,
    " neg": 3907,
    " problems": 3908,
    " summer": 3909,
    " Light": 3910,
    " 1942": 3911,
    "rack": 3912,
    " ultimately": 3913,
    " asked": 3914,
    " equipment": 3915,
    "tained": 3916,
    "west": 3917,
    " rail": 3918,
    " uses": 3919,
    "add": 3920,
    " Hosp": 3921,
    " respectively": 3922,
    "ampionship": 3923,
    " Vill": 3924,
    " course": 3925,
    " molec": 3926,
    "alysis": 3927,
    " 39": 3928,
    " surface": 3929,
    " Los": 3930,
    "ris": 3931,
    " our": 3932,
    " bring": 3933,
    " decision": 3934,
    " mixed": 3935,
    " tons": 3936,
    "cing": 3937,
    " drama": 3938,
    " rom": 3939,
    " Var": 3940,
    " ability": 3941,
    "ters": 3942,
    " future": 3943,
    " tur": 3944,
    "bre": 3945,
    "iron": 3946,
    " bound": 3947,
    " emph": 3948,
    " residents": 3949,
    " Ev": 3950,
    " Av": 3951,
    " associated": 3952,
    " sites": 3953,
    "ricult": 3954,
    " radio": 3955,
    " weather": 3956,
    " La": 3957,
    "iences": 3958,
    "ancy": 3959,
    " job": 3960,
    " monument": 3961,
    " Germans": 3962,
    " Romanian": 3963,
    "iple": 3964,
    " divided": 3965,
    "ks": 3966,
    " cause": 3967,
    " majority": 3968,
    "anks": 3969,
    "rie": 3970,
    "arters": 3971,
    "illery": 3972,
    "ipp": 3973,
    "alion": 3974,
    " Thomas": 3975,
    " attempted": 3976,
    " Dist": 3977,
    " married": 3978,
    " financ": 3979,
    " Land": 3980,
    " aut": 3981,
    " entered": 3982,
    "ugh": 3983,
    " sem": 3984,
    " Sal": 3985,
    "allow": 3986,
    "ribution": 3987,
    " playoff": 3988,
    " lo": 3989,
    " allowing": 3990,
    " managed": 3991,
    " strugg": 3992,
    " Campb": 3993,
    "eated": 3994,
    " nin": 3995,
    "era": 3996,
    "ios": 3997,
    " complete": 3998,
    "to": 3999,
    "orship": 4000,
    " responsible": 4001,
    " Live": 4002,
    "ema": 4003,
    "orses": 4004,
    "ashion": 4005,
    "ests": 4006,
    " recover": 4007,
    " promot": 4008,
    " fruit": 4009,
    "lands": 4010,
    " pilot": 4011,
    " slightly": 4012,
    " attacked": 4013,
    " quarter": 4014,
    " Mill": 4015,
    " UN": 4016,
    " bask": 4017,
    " baby": 4018,
    " bird": 4019,
    " Catechism": 4020,
    " Fei": 4021,
    " Tint": 4022,
    "agod": 4023,
    " 766": 4024,
    " done": 4025,
    "anded": 4026,
    " unl": 4027,
    " route": 4028,
    " selected": 4029,
    " experience": 4030,
    "itor": 4031,
    " peace": 4032,
    " parts": 4033,
    " instrum": 4034,
    " constructed": 4035,
    " singer": 4036,
    " lyric": 4037,
    " journal": 4038,
    " pu": 4039,
    "be": 4040,
    " inspired": 4041,
    " transferred": 4042,
    " consider": 4043,
    " surre": 4044,
    "Th": 4045,
    " issued": 4046,
    " rapid": 4047,
    " Over": 4048,
    "hood": 4049,
    "arden": 4050,
    " room": 4051,
    " 1943": 4052,
    " resc": 4053,
    " society": 4054,
    " chap": 4055,
    " chall": 4056,
    "abit": 4057,
    "roph": 4058,
    "ogen": 4059,
    " nuclear": 4060,
    " compared": 4061,
    " max": 4062,
    " calling": 4063,
    " earned": 4064,
    " Sha": 4065,
    " contrast": 4066,
    " source": 4067,
    " dance": 4068,
    " network": 4069,
    " inches": 4070,
    " Of": 4071,
    "TV": 4072,
    " actions": 4073,
    " Ul": 4074,
    " covered": 4075,
    " mention": 4076,
    " includes": 4077,
    " emphas": 4078,
    " gra": 4079,
    " temper": 4080,
    " discovered": 4081,
    " Golden": 4082,
    " Area": 4083,
    "BC": 4084,
    " Street": 4085,
    " excavation": 4086,
    " mountain": 4087,
    " sal": 4088,
    " 175": 4089,
    " Russian": 4090,
    " archaeological": 4091,
    " jazz": 4092,
    " Gab": 4093,
    " Li": 4094,
    " Storm": 4095,
    "owitz": 4096,
    " Tintin": 4097,
    " Mathews": 4098,
    " Chronic": 4099,
    "St": 4100,
    " unit": 4101,
    " approach": 4102,
    " records": 4103,
    " aband": 4104,
    " proposed": 4105,
    " Max": 4106,
    " reject": 4107,
    " listed": 4108,
    "senal": 4109,
    " 1997": 4110,
    " thick": 4111,
    " Civil": 4112,
    " federal": 4113,
    "orce": 4114,
    " yet": 4115,
    " leaving": 4116,
    " efforts": 4117,
    " Conf": 4118,
    " Center": 4119,
    " ran": 4120,
    " influence": 4121,
    "que": 4122,
    " Following": 4123,
    " board": 4124,
    " fired": 4125,
    " Off": 4126,
    "iate": 4127,
    " represented": 4128,
    " pow": 4129,
    " reduced": 4130,
    " deg": 4131,
    " accepted": 4132,
    " voice": 4133,
    "isters": 4134,
    "los": 4135,
    " era": 4136,
    " frequ": 4137,
    "oura": 4138,
    " information": 4139,
    " hundred": 4140,
    "ardo": 4141,
    " vocal": 4142,
    " mic": 4143,
    "usband": 4144,
    " refused": 4145,
    "ano": 4146,
    " nearby": 4147,
    " document": 4148,
    " Day": 4149,
    " horses": 4150,
    "ershowitz": 4151,
    " Bass": 4152,
    "ycake": 4153,
    " pen": 4154,
    " location": 4155,
    " episodes": 4156,
    "ective": 4157,
    " acqu": 4158,
    " types": 4159,
    " ending": 4160,
    " musical": 4161,
    " revealed": 4162,
    " Sen": 4163,
    " highly": 4164,
    " appearances": 4165,
    "isl": 4166,
    " conflict": 4167,
    "icient": 4168,
    " indic": 4169,
    " deploy": 4170,
    "umn": 4171,
    " artist": 4172,
    " unable": 4173,
    " 1960": 4174,
    " division": 4175,
    " Girl": 4176,
    " 1930": 4177,
    " 1944": 4178,
    " Bed": 4179,
    "FA": 4180,
    " northern": 4181,
    "aped": 4182,
    " marked": 4183,
    " male": 4184,
    "itting": 4185,
    "uing": 4186,
    " immediately": 4187,
    " Four": 4188,
    " BC": 4189,
    "gn": 4190,
    " 400": 4191,
    " thous": 4192,
    " Sund": 4193,
    " domin": 4194,
    " suppl": 4195,
    " diss": 4196,
    " words": 4197,
    " grew": 4198,
    "ironment": 4199,
    " cannot": 4200,
    "itude": 4201,
    " extre": 4202,
    " hair": 4203,
    "rapped": 4204,
    "eath": 4205,
    " engaged": 4206,
    " 1939": 4207,
    " concent": 4208,
    " Director": 4209,
    "usp": 4210,
    "uan": 4211,
    " Bo": 4212,
    " producers": 4213,
    " Water": 4214,
    "onin": 4215,
    " Dershowitz": 4216,
    "ibar": 4217,
    " transl": 4218,
    " enemy": 4219,
    " text": 4220,
    " Arm": 4221,
    " Its": 4222,
    " poly": 4223,
    " prec": 4224,
    "ao": 4225,
    " issues": 4226,
    " princ": 4227,
    " convent": 4228,
    " respond": 4229,
    " Smith": 4230,
    " situation": 4231,
    " morning": 4232,
    " hands": 4233,
    " Records": 4234,
    "oric": 4235,
    " Book": 4236,
    "sw": 4237,
    "hers": 4238,
    " homes": 4239,
    "ells": 4240,
    " patt": 4241,
    " pattern": 4242,
    " Cons": 4243,
    "pan": 4244,
    " changed": 4245,
    " 33": 4246,
    " question": 4247,
    " Ell": 4248,
    " dro": 4249,
    "ittee": 4250,
    "ula": 4251,
    " vocals": 4252,
    "inus": 4253,
    " 180": 4254,
    " Commander": 4255,
    " cle": 4256,
    " hospital": 4257,
    " Fernand": 4258,
    " roles": 4259,
    "han": 4260,
    " 1991": 4261,
    "oud": 4262,
    " wing": 4263,
    " Stra": 4264,
    " figures": 4265,
    " promoted": 4266,
    "Al": 4267,
    " 70": 4268,
    " typically": 4269,
    "olk": 4270,
    " mo": 4271,
    " regime": 4272,
    " Kn": 4273,
    " Parliament": 4274,
    " Jim": 4275,
    " basketball": 4276,
    " arts": 4277,
    "artial": 4278,
    " Zanz": 4279,
    " Zanzibar": 4280,
    " referred": 4281,
    " Rev": 4282,
    " officially": 4283,
    " meaning": 4284,
    " upper": 4285,
    " wear": 4286,
    " Like": 4287,
    " incorpor": 4288,
    " lyrics": 4289,
    " attend": 4290,
    " owned": 4291,
    "joy": 4292,
    " standing": 4293,
    " Richard": 4294,
    " planned": 4295,
    " Ark": 4296,
    " Since": 4297,
    " tower": 4298,
    " starting": 4299,
    " reinf": 4300,
    " giving": 4301,
    " consisted": 4302,
    " spir": 4303,
    "ecting": 4304,
    "bo": 4305,
    " App": 4306,
    " raised": 4307,
    " Child": 4308,
    "overs": 4309,
    " 1941": 4310,
    "emorial": 4311,
    "vey": 4312,
    " via": 4313,
    "uter": 4314,
    " basis": 4315,
    " variety": 4316,
    " Jackets": 4317,
    " Je": 4318,
    " alongside": 4319,
    " 38": 4320,
    "standing": 4321,
    " Ital": 4322,
    " stars": 4323,
    " strength": 4324,
    " acting": 4325,
    "iled": 4326,
    " Hung": 4327,
    " Because": 4328,
    " bodies": 4329,
    " dism": 4330,
    " celebr": 4331,
    " Sch": 4332,
    "odrom": 4333,
    " medical": 4334,
    " Bow": 4335,
    " oppon": 4336,
    "agre": 4337,
    "ourt": 4338,
    "gin": 4339,
    " caves": 4340,
    " 87": 4341,
    " achieved": 4342,
    " casual": 4343,
    " Clarkson": 4344,
    " acids": 4345,
    " hyg": 4346,
    " Lady": 4347,
    " CP": 4348,
    " Korean": 4349,
    " slide": 4350,
    "rec": 4351,
    " higher": 4352,
    " 42": 4353,
    " combined": 4354,
    " bene": 4355,
    " lives": 4356,
    " themes": 4357,
    "het": 4358,
    "pre": 4359,
    " withdra": 4360,
    "adel": 4361,
    "uten": 4362,
    " rear": 4363,
    " collabor": 4364,
    "arked": 4365,
    " 1988": 4366,
    " 1950": 4367,
    " beat": 4368,
    "uses": 4369,
    " leave": 4370,
    " opportun": 4371,
    " altern": 4372,
    " shr": 4373,
    " individuals": 4374,
    " Bon": 4375,
    "ging": 4376,
    " resulted": 4377,
    "rog": 4378,
    " Trans": 4379,
    "uous": 4380,
    " historical": 4381,
    " silver": 4382,
    " Dan": 4383,
    " attempts": 4384,
    " controlled": 4385,
    " squadron": 4386,
    " demonst": 4387,
    " advance": 4388,
    " Tri": 4389,
    "uated": 4390,
    " plays": 4391,
    " mut": 4392,
    " 1993": 4393,
    " secondary": 4394,
    " 37": 4395,
    "ynasty": 4396,
    " older": 4397,
    "ocr": 4398,
    "omer": 4399,
    " Lew": 4400,
    " ox": 4401,
    " coins": 4402,
    " Madero": 4403,
    "aging": 4404,
    " ha": 4405,
    "igade": 4406,
    " swe": 4407,
    " Stef": 4408,
    " Jay": 4409,
    "azer": 4410,
    "oli": 4411,
    " ML": 4412,
    " Woodhouse": 4413,
    " pan": 4414,
    "oper": 4415,
    " sense": 4416,
    " color": 4417,
    " lower": 4418,
    " extended": 4419,
    " purch": 4420,
    "ehic": 4421,
    " attract": 4422,
    " newly": 4423,
    " Major": 4424,
    " perman": 4425,
    " specim": 4426,
    " legisl": 4427,
    "orc": 4428,
    " property": 4429,
    " stay": 4430,
    "airs": 4431,
    " companies": 4432,
    " oil": 4433,
    " activity": 4434,
    " Fair": 4435,
    " financial": 4436,
    " teaching": 4437,
    " Str": 4438,
    " annual": 4439,
    " 1920": 4440,
    " lif": 4441,
    " rights": 4442,
    "iations": 4443,
    " bott": 4444,
    " reports": 4445,
    " interact": 4446,
    "change": 4447,
    " seasons": 4448,
    " Stan": 4449,
    " Conference": 4450,
    " big": 4451,
    " depart": 4452,
    " fres": 4453,
    " Care": 4454,
    " begins": 4455,
    "orus": 4456,
    " toward": 4457,
    " Iron": 4458,
    "ented": 4459,
    " broke": 4460,
    "asure": 4461,
    " cer": 4462,
    " seventh": 4463,
    " 79": 4464,
    "AT": 4465,
    " formation": 4466,
    "kins": 4467,
    " fully": 4468,
    " buried": 4469,
    " Priest": 4470,
    " performances": 4471,
    " Class": 4472,
    " sulf": 4473,
    " forest": 4474,
    " produce": 4475,
    "nest": 4476,
    " prison": 4477,
    " Through": 4478,
    "elligence": 4479,
    " explained": 4480,
    " couple": 4481,
    " Hou": 4482,
    " Cont": 4483,
    " studies": 4484,
    " sources": 4485,
    " Coldrum": 4486,
    "olithic": 4487,
    " herd": 4488,
    " audience": 4489,
    " Allosaurus": 4490,
    " hem": 4491,
    " 176": 4492,
    " Chronicles": 4493,
    " script": 4494,
    "ounded": 4495,
    " losses": 4496,
    "echan": 4497,
    " mem": 4498,
    " expected": 4499,
    " guit": 4500,
    " synthes": 4501,
    " People": 4502,
    "ki": 4503,
    "quarters": 4504,
    " Work": 4505,
    " Henry": 4506,
    " Mount": 4507,
    "adelph": 4508,
    "adelphia": 4509,
    "inity": 4510,
    "ieuten": 4511,
    " Green": 4512,
    " guard": 4513,
    " families": 4514,
    " surrounding": 4515,
    " Bern": 4516,
    " flow": 4517,
    " parents": 4518,
    "hold": 4519,
    " Hill": 4520,
    " retired": 4521,
    " disapp": 4522,
    "ervation": 4523,
    " Bart": 4524,
    " Back": 4525,
    " contains": 4526,
    " Gulf": 4527,
    "inese": 4528,
    " pick": 4529,
    "ender": 4530,
    " Add": 4531,
    " jud": 4532,
    " Sam": 4533,
    "ipped": 4534,
    " Italian": 4535,
    " Jul": 4536,
    " 179": 4537,
    " notes": 4538,
    "oes": 4539,
    " Several": 4540,
    "ney": 4541,
    " Secret": 4542,
    "annel": 4543,
    " du": 4544,
    " Enter": 4545,
    " media": 4546,
    " restaur": 4547,
    " Eastern": 4548,
    "agn": 4549,
    " share": 4550,
    " train": 4551,
    " combat": 4552,
    " assault": 4553,
    "dess": 4554,
    " creation": 4555,
    " king": 4556,
    " neigh": 4557,
    " adopted": 4558,
    " alone": 4559,
    "estival": 4560,
    " presented": 4561,
    " facilities": 4562,
    " grass": 4563,
    " square": 4564,
    " Cong": 4565,
    " China": 4566,
    "utch": 4567,
    " Chris": 4568,
    " premi": 4569,
    " viewers": 4570,
    " Time": 4571,
    " copies": 4572,
    "oca": 4573,
    " tomb": 4574,
    "blazer": 4575,
    " acid": 4576,
    " archaeology": 4577,
    " leukemia": 4578,
    " UT": 4579,
    " NS": 4580,
    " Omar": 4581,
    " chess": 4582,
    " Kody": 4583,
    " nation": 4584,
    " something": 4585,
    " victory": 4586,
    " weapons": 4587,
    " becomes": 4588,
    "chest": 4589,
    " featuring": 4590,
    " data": 4591,
    " enjoy": 4592,
    " vehic": 4593,
    " widely": 4594,
    "emble": 4595,
    "umed": 4596,
    " charge": 4597,
    " river": 4598,
    " artillery": 4599,
    "erg": 4600,
    " Middle": 4601,
    "utions": 4602,
    " Girls": 4603,
    " prepar": 4604,
    "mon": 4605,
    " Forces": 4606,
    " African": 4607,
    " active": 4608,
    " mainly": 4609,
    " Latin": 4610,
    " likely": 4611,
    "ua": 4612,
    " Human": 4613,
    " Chinese": 4614,
    " rate": 4615,
    "With": 4616,
    "At": 4617,
    "ergy": 4618,
    " Swed": 4619,
    " write": 4620,
    " Creek": 4621,
    " identified": 4622,
    " Carolina": 4623,
    "iff": 4624,
    " 2016": 4625,
    "ims": 4626,
    " amb": 4627,
    " 1992": 4628,
    " initi": 4629,
    "itual": 4630,
    " symb": 4631,
    " physical": 4632,
    " Dem": 4633,
    " od": 4634,
    " sched": 4635,
    " agricult": 4636,
    " prohib": 4637,
    " opin": 4638,
    " Saint": 4639,
    " fung": 4640,
    "agle": 4641,
    " susp": 4642,
    "udd": 4643,
    "bour": 4644,
    " Gang": 4645,
    " Home": 4646,
    " constit": 4647,
    " Houston": 4648,
    " rating": 4649,
    " flooding": 4650,
    " Tonin": 4651,
    " Hob": 4652,
    " Bedell": 4653,
    " Play": 4654,
    " comic": 4655,
    " inn": 4656,
    " foreign": 4657,
    "ether": 4658,
    " concept": 4659,
    " shortly": 4660,
    "ario": 4661,
    " determined": 4662,
    " surrender": 4663,
    " officials": 4664,
    " 52": 4665,
    " 75": 4666,
    " prepared": 4667,
    " pay": 4668,
    " Chap": 4669,
    " door": 4670,
    " Barker": 4671,
    " poet": 4672,
    " 1918": 4673,
    " recomm": 4674,
    " Sus": 4675,
    " print": 4676,
    " participated": 4677,
    " narrow": 4678,
    " ded": 4679,
    "ends": 4680,
    "eller": 4681,
    " reach": 4682,
    " Columbus": 4683,
    " personnel": 4684,
    " controvers": 4685,
    " fort": 4686,
    "aded": 4687,
    " Lu": 4688,
    "order": 4689,
    " Matt": 4690,
    " sides": 4691,
    " Fernandez": 4692,
    " Mal": 4693,
    " projects": 4694,
    " cerem": 4695,
    " Cullen": 4696,
    "iny": 4697,
    " myth": 4698,
    " environment": 4699,
    " fashion": 4700,
    " mur": 4701,
    " benef": 4702,
    " monuments": 4703,
    "ellow": 4704,
    " fill": 4705,
    " effects": 4706,
    "while": 4707,
    " avoid": 4708,
    " tax": 4709,
    "ety": 4710,
    " Council": 4711,
    " Three": 4712,
    " husband": 4713,
    "rosc": 4714,
    " Charlott": 4715,
    " Charlotte": 4716,
    "rania": 4717,
    " jump": 4718,
    " Review": 4719,
    " RAA": 4720,
    " RAAF": 4721,
    " Nations": 4722,
    " vessels": 4723,
    " Hot": 4724,
    " Night": 4725,
    " sentences": 4726,
    " WASP": 4727,
    "RA": 4728,
    " cave": 4729,
    "amber": 4730,
    "ati": 4731,
    " Madison": 4732,
    " cyclone": 4733,
    "aws": 4734,
    "ansfield": 4735,
    " martial": 4736,
    " Haitian": 4737,
    " growth": 4738,
    " Dar": 4739,
    "sey": 4740,
    " escort": 4741,
    " ess": 4742,
    " tracks": 4743,
    "aks": 4744,
    " tim": 4745,
    " Kur": 4746,
    " Mac": 4747,
    "gl": 4748,
    " passing": 4749,
    "ocated": 4750,
    "ession": 4751,
    " winter": 4752,
    " security": 4753,
    "ocks": 4754,
    " Sum": 4755,
    " District": 4756,
    " today": 4757,
    " floor": 4758,
    " exhib": 4759,
    " attended": 4760,
    " middle": 4761,
    " hired": 4762,
    "erted": 4763,
    " influenced": 4764,
    "bury": 4765,
    " Way": 4766,
    " organized": 4767,
    " Victoria": 4768,
    " function": 4769,
    " worst": 4770,
    " Scott": 4771,
    "otes": 4772,
    " Tor": 4773,
    "ceeded": 4774,
    " 48": 4775,
    "ville": 4776,
    " results": 4777,
    " reform": 4778,
    " normal": 4779,
    " dom": 4780,
    " famous": 4781,
    " Maria": 4782,
    " step": 4783,
    " 1986": 4784,
    " commented": 4785,
    " eas": 4786,
    "rab": 4787,
    "ini": 4788,
    "har": 4789,
    " Entertain": 4790,
    " univers": 4791,
    " thousands": 4792,
    " perfect": 4793,
    "ynam": 4794,
    " believe": 4795,
    "aith": 4796,
    " peaked": 4797,
    " Calif": 4798,
    " aerodrom": 4799,
    " airport": 4800,
    "fall": 4801,
    " Ox": 4802,
    "uff": 4803,
    " primarily": 4804,
    " coin": 4805,
    " newspaper": 4806,
    " administ": 4807,
    "andid": 4808,
    " 72": 4809,
    "emic": 4810,
    " violence": 4811,
    " Gar": 4812,
    " Jer": 4813,
    " rat": 4814,
    " 34": 4815,
    " Just": 4816,
    " Finals": 4817,
    "oe": 4818,
    "agoda": 4819,
    " Nightingale": 4820,
    " Pattycake": 4821,
    " moves": 4822,
    " attacks": 4823,
    " Tre": 4824,
    " mechan": 4825,
    "rant": 4826,
    " needed": 4827,
    "itable": 4828,
    " quality": 4829,
    " sto": 4830,
    " Pac": 4831,
    " walls": 4832,
    " arms": 4833,
    "rid": 4834,
    "ieutenant": 4835,
    " sole": 4836,
    " Wales": 4837,
    " impact": 4838,
    " Another": 4839,
    " analysis": 4840,
    " prominent": 4841,
    "orter": 4842,
    " maximum": 4843,
    "ighth": 4844,
    " consecutive": 4845,
    " mom": 4846,
    " Bost": 4847,
    " numerous": 4848,
    " wins": 4849,
    " Super": 4850,
    " Short": 4851,
    " Bob": 4852,
    " key": 4853,
    " nort": 4854,
    " supporting": 4855,
    " displ": 4856,
    " Not": 4857,
    " Franc": 4858,
    " dial": 4859,
    " scholars": 4860,
    "oration": 4861,
    " belief": 4862,
    "hist": 4863,
    " humans": 4864,
    " argued": 4865,
    "kn": 4866,
    " watch": 4867,
    " practice": 4868,
    "ertain": 4869,
    " portray": 4870,
    " Mus": 4871,
    " Californ": 4872,
    " Pop": 4873,
    " market": 4874,
    "nyi": 4875,
    " sout": 4876,
    "roscop": 4877,
    " scenes": 4878,
    " Express": 4879,
    " master": 4880,
    "ocaust": 4881,
    " Norman": 4882,
    " Prime": 4883,
    " archaeologist": 4884,
    " Maryland": 4885,
    "romet": 4886,
    " toll": 4887,
    " Creutz": 4888,
    " UTC": 4889,
    " defences": 4890,
    "alle": 4891,
    " cust": 4892,
    "anging": 4893,
    " composed": 4894,
    " task": 4895,
    " continues": 4896,
    " Ram": 4897,
    " lived": 4898,
    " creating": 4899,
    " separate": 4900,
    " If": 4901,
    " versions": 4902,
    "lus": 4903,
    "ros": 4904,
    "angers": 4905,
    " your": 4906,
    " collection": 4907,
    " chemical": 4908,
    "ols": 4909,
    " sort": 4910,
    " Wash": 4911,
    " organiz": 4912,
    " invited": 4913,
    " paid": 4914,
    " historic": 4915,
    "erve": 4916,
    "isers": 4917,
    " influences": 4918,
    " belong": 4919,
    " literature": 4920,
    " Sir": 4921,
    " publication": 4922,
    " plant": 4923,
    " visited": 4924,
    " heart": 4925,
    " planning": 4926,
    "atur": 4927,
    " ang": 4928,
    " matches": 4929,
    "NA": 4930,
    " relatively": 4931,
    " Hockey": 4932,
    " stra": 4933,
    " Head": 4934,
    " score": 4935,
    " Philadelphia": 4936,
    " stating": 4937,
    " Ap": 4938,
    " ver": 4939,
    " 56": 4940,
    " cases": 4941,
    "ware": 4942,
    " farm": 4943,
    " county": 4944,
    " Only": 4945,
    "ections": 4946,
    " 57": 4947,
    " require": 4948,
    "lywood": 4949,
    " product": 4950,
    " gives": 4951,
    " bond": 4952,
    " party": 4953,
    " contemporary": 4954,
    " offensive": 4955,
    " Alexander": 4956,
    " 1914": 4957,
    " 600": 4958,
    " Allied": 4959,
    "known": 4960,
    " mentioned": 4961,
    " images": 4962,
    " Wil": 4963,
    " behav": 4964,
    "rupt": 4965,
    " Os": 4966,
    " wides": 4967,
    " Inter": 4968,
    " acts": 4969,
    "eer": 4970,
    " Blood": 4971,
    " lot": 4972,
    " Sou": 4973,
    " really": 4974,
    "anes": 4975,
    "wich": 4976,
    "imin": 4977,
    " meeting": 4978,
    " Urania": 4979,
    " exped": 4980,
    " NBC": 4981,
    " pregn": 4982,
    " 95": 4983,
    " Holocaust": 4984,
    " casualties": 4985,
    " Balt": 4986,
    "OT": 4987,
    " FA": 4988,
    " Sunday": 4989,
    " wild": 4990,
    " Israeli": 4991,
    " Theatre": 4992,
    " Crus": 4993,
    " Villaret": 4994,
    " Hellblazer": 4995,
    " indigo": 4996,
    " progress": 4997,
    " hero": 4998,
    " unique": 4999
}